{
  "</s>": 0,
  "<unk>": 1,
  ".": 2,
  ",": 3,
  "\u2581": 4,
  "\u2581the": 5,
  "s": 6,
  "\u2581to": 7,
  "\u2581of": 8,
  "\u2581a": 9,
  "\u2581and": 10,
  "\u2581in": 11,
  "?": 12,
  ":": 13,
  "\u2581that": 14,
  "'": 15,
  "\u2581-": 16,
  "\u2581is": 17,
  "\u2581(": 18,
  "\u2581e": 19,
  "-": 20,
  "\u2581I": 21,
  "\u2581for": 22,
  "\u2581you": 23,
  ")": 24,
  "a": 25,
  "\u200c": 26,
  "\u2581\u201d": 27,
  "t": 28,
  "\u2581\u201c": 29,
  "\u2581na": 30,
  "\u2581be": 31,
  "\u2581i": 32,
  "i": 33,
  "\u2019": 34,
  "e": 35,
  "\u2581not": 36,
  "\u2581te": 37,
  "\u2581he": 38,
  "\u2581with": 39,
  "\u2581on": 40,
  "u": 41,
  "\u2581de": 42,
  "\u2581it": 43,
  "\u2581we": 44,
  "d": 45,
  ";": 46,
  "m": 47,
  "\u2581o": 48,
  "\u2581are": 49,
  "o": 50,
  "\u2581The": 51,
  "\u2581an": 52,
  "\u2581as": 53,
  "\u2581\u2014": 54,
  "\u2581will": 55,
  "\u2581have": 56,
  "\u2581was": 57,
  "!": 58,
  "\u2581his": 59,
  "na": 60,
  "\u2581God": 61,
  "n": 62,
  "\u2581A": 63,
  "\u2581ti": 64,
  "\u2581sa": 65,
  "\u2581they": 66,
  "\u2581do": 67,
  "\u2581Jehovah": 68,
  "\u2581me": 69,
  "\u2581from": 70,
  "\u2581by": 71,
  "\u2581this": 72,
  "\u2581li": 73,
  "\u2581\u2018": 74,
  "ta": 75,
  "\u2581ka": 76,
  "la": 77,
  "\u2581la": 78,
  "\u2581so": 79,
  "y": 80,
  "\u2581or": 81,
  "ka": 82,
  "\u2581them": 83,
  "\u2581ku": 84,
  "\u2581nga": 85,
  "\u2581your": 86,
  "r": 87,
  "\u2581who": 88,
  "te": 89,
  "k": 90,
  "ni": 91,
  "\u2581all": 92,
  "\u2581their": 93,
  "\u2581_": 94,
  "re": 95,
  "\u2581can": 96,
  "\u2581at": 97,
  "ti": 98,
  "...": 99,
  "\u2581ma": 100,
  "\u2581him": 101,
  "\u2581le": 102,
  "\u2581ni": 103,
  "\u2581ko": 104,
  "\u2581no": 105,
  "\u2581ne": 106,
  "l": 107,
  "da": 108,
  "\u2581se": 109,
  "li": 110,
  "\u2581ta": 111,
  "an": 112,
  "\u2581di": 113,
  "\u2581ki": 114,
  "\u2581ha": 115,
  "\u060c": 116,
  "\u2581ya": 117,
  "\u2581%": 118,
  "si": 119,
  "c": 120,
  "\u2581n": 121,
  "ma": 122,
  "\u2581\"": 123,
  "to": 124,
  "le": 125,
  "en": 126,
  "\u2581E": 127,
  "ra": 128,
  "\u2581us": 129,
  "ne": 130,
  "\u2581our": 131,
  "\u2581u": 132,
  "g": 133,
  "er": 134,
  "\u2581what": 135,
  "\u2581da": 136,
  "ga": 137,
  "b": 138,
  "ko": 139,
  "\u2581\u2019": 140,
  "ing": 141,
  "\u2581He": 142,
  "\u2581Jesus": 143,
  "se": 144,
  "\u2581And": 145,
  "lo": 146,
  "sa": 147,
  "de": 148,
  "\u2581my": 149,
  "\u2581ke": 150,
  "\u2581one": 151,
  "\u2581pa": 152,
  "\u2581\u0648": 153,
  "\u2581were": 154,
  "\u2581has": 155,
  "\u25811": 156,
  "in": 157,
  "no": 158,
  "\u2581mo": 159,
  "tu": 160,
  "\u2581In": 161,
  "\u2581[": 162,
  "\u2581si": 163,
  "\u2581What": 164,
  "/": 165,
  "\u2581when": 166,
  "\u2581ri": 167,
  "\u2581had": 168,
  "\u2581We": 169,
  "ba": 170,
  "wa": 171,
  "\u2581but": 172,
  "\u2581ba": 173,
  "h": 174,
  "\u0323": 175,
  "ri": 176,
  "\u2581which": 177,
  "\u0631": 178,
  "\u0646": 179,
  "\u2581people": 180,
  "\u2581mu": 181,
  "ro": 182,
  "z": 183,
  "p": 184,
  "\u2581en": 185,
  "ke": 186,
  "\u2581s": 187,
  "\u2581O": 188,
  "\u06cc": 189,
  "ya": 190,
  "ja": 191,
  "\u2581re": 192,
  "mi": 193,
  "j": 194,
  "ku": 195,
  "\u2018": 196,
  "\u2581about": 197,
  "]": 198,
  "\u2581shall": 199,
  "di": 200,
  "\u2581may": 201,
  "ed": 202,
  "\u2581out": 203,
  "\u2581You": 204,
  "\u2581those": 205,
  "\u0442": 206,
  "va": 207,
  "ar": 208,
  "\u2581said": 209,
  "\u2581Bible": 210,
  "\u2581y": 211,
  "\u2581man": 212,
  "\u2581wa": 213,
  "\u2581would": 214,
  "ve": 215,
  "lu": 216,
  "\u2581d": 217,
  "\u2581l": 218,
  "ki": 219,
  "\u2581S": 220,
  "me": 221,
  "mo": 222,
  "ng": 223,
  "\u2581It": 224,
  "\u2581up": 225,
  "\u2581va": 226,
  "\u0648": 227,
  "\u02c8": 228,
  "\u2581if": 229,
  "al": 230,
  "\u2581\u00ab": 231,
  "\u2581time": 232,
  "je": 233,
  "ha": 234,
  "\u2581et": 235,
  "do": 236,
  "\u2581un": 237,
  "\u2581did": 238,
  "\u2581there": 239,
  "ye": 240,
  "zi": 241,
  "\u2581tu": 242,
  "ch": 243,
  "\u02bc": 244,
  "x": 245,
  "mu": 246,
  "\u0647": 247,
  "ci": 248,
  "\u043c": 249,
  "yo": 250,
  "\u2581been": 251,
  "\u2581How": 252,
  "es": 253,
  "\u2581should": 254,
  "v": 255,
  "be": 256,
  "\u2581also": 257,
  "\u2581her": 258,
  "_": 259,
  "\u0441": 260,
  "\u2581No": 261,
  "\u0645": 262,
  "pa": 263,
  "w": 264,
  "st": 265,
  "\u2581more": 266,
  "vi": 267,
  "\u7684": 268,
  "\u043b": 269,
  "hi": 270,
  "is": 271,
  "\u2581Na": 272,
  "\u043a": 273,
  "za": 274,
  "\u2581\u0438": 275,
  "\u2581ye": 276,
  "\u0439": 277,
  "\u2581But": 278,
  "\u2581ra": 279,
  "\u2581b": 280,
  "bi": 281,
  "\u2581\u0628\u0647": 282,
  "\u2581know": 283,
  "\u2581bi": 284,
  "\u2581su": 285,
  "ly": 286,
  "\u0445": 287,
  "\u2581c": 288,
  "\u0443": 289,
  "\u0430": 290,
  "ny": 291,
  "we": 292,
  "S": 293,
  "\u2581m": 294,
  "so": 295,
  "\u2581into": 296,
  "\u2581lo": 297,
  "\u043d": 298,
  "\u2581life": 299,
  "\u2581ai": 300,
  "f": 301,
  "\"": 302,
  "\u2581So": 303,
  "\u2581This": 304,
  "\u2581Allah": 305,
  "\u2581go": 306,
  "bo": 307,
  "\u2581mi": 308,
  "\u2581t": 309,
  "\u2581other": 310,
  "A": 311,
  "\u2581size": 312,
  "go": 313,
  "\u0440": 314,
  "\u2581C": 315,
  "\u2581ga": 316,
  "\u2581For": 317,
  "\u2581some": 318,
  "\u2581good": 319,
  "\u25812": 320,
  "\u2581ia": 321,
  "\u2581how": 322,
  "ho": 323,
  "\u0438": 324,
  "\u0434": 325,
  "ca": 326,
  "ll": 327,
  "\u2581&": 328,
  "\u2581mai": 329,
  "ce": 330,
  "\u2581Ma": 331,
  "nga": 332,
  "ge": 333,
  "\u0435": 334,
  "on": 335,
  "\u2581men": 336,
  "fa": 337,
  "\u2581'": 338,
  "\u2581way": 339,
  "\u2581things": 340,
  "\u2581po": 341,
  "\u2581like": 342,
  "\u2581make": 343,
  "\u0433\u0430": 344,
  "\u2581je": 345,
  "ru": 346,
  "\u2581They": 347,
  "\u2581\u0430": 348,
  "\u2581help": 349,
  "\u043d\u0438": 350,
  "\u2581such": 351,
  "\u2581than": 352,
  "as": 353,
  "\u2581ca": 354,
  "q": 355,
  "I": 356,
  "\u2581day": 357,
  "\u2581To": 358,
  "gi": 359,
  "\u2581bu": 360,
  "vo": 361,
  "\u2581\u043d\u0430": 362,
  "\u2581If": 363,
  "he": 364,
  "pe": 365,
  "\u2581K": 366,
  "\u2581ar": 367,
  "\u2581que": 368,
  "\u2581za": 369,
  "man": 370,
  "\u2581these": 371,
  "\u2581ang": 372,
  "\u1295": 373,
  "\u043f": 374,
  "E": 375,
  "\u2581over": 376,
  "\u2581come": 377,
  "C": 378,
  "\u2581pe": 379,
  "\u2581any": 380,
  "il": 381,
  "\u00e1": 382,
  "\u2581die": 383,
  "\u2581mga": 384,
  "\u2581made": 385,
  "\u2581du": 386,
  "\u062a": 387,
  "it": 388,
  "du": 389,
  "\u2581ci": 390,
  "\u0440\u0430": 391,
  "\u2581could": 392,
  "\u2581then": 393,
  "us": 394,
  "\u2581she": 395,
  "\u2581chi": 396,
  "\u2581its": 397,
  "bu": 398,
  ").": 399,
  "\u2581only": 400,
  "\u2581N": 401,
  "\u200d": 402,
  "\u2581hi": 403,
  "\u00ad": 404,
  "\u2581many": 405,
  "\u2581does": 406,
  "\u00e9": 407,
  "nu": 408,
  "\u2581Do": 409,
  "\u2581ja": 410,
  "\u2581work": 411,
  "\u043d\u0430": 412,
  "\u2581M": 413,
  "\u2581even": 414,
  "\u2581B": 415,
  "pi": 416,
  "\u2581before": 417,
  "\u2581say": 418,
  "\u2581Ka": 419,
  "\u2581U": 420,
  "\u2581love": 421,
  "\u2581per": 422,
  "\u2581k": 423,
  "\u2581P": 424,
  "\u2581oku": 425,
  "\u0633": 426,
  "\u2581name": 427,
  "\u0433": 428,
  "\u2581because": 429,
  "\u0434\u0430": 430,
  "\u2581\u0441": 431,
  "\u2581see": 432,
  "ir": 433,
  "po": 434,
  "\u2581When": 435,
  "\u2581\u0432": 436,
  "\u2581am": 437,
  "wi": 438,
  "wo": 439,
  "\u2581yo": 440,
  "\u2581Lord": 441,
  "\u2581just": 442,
  "\u3002": 443,
  "sta": 444,
  "\u0448": 445,
  "\u2581fa": 446,
  "the": 447,
  "\u2581G": 448,
  "\u064a": 449,
  "\u2581er": 450,
  "\u2581Sa": 451,
  "\u2581need": 452,
  "\u2581world": 453,
  "\u2581first": 454,
  "\u0442\u0430": 455,
  "or": 456,
  "at": 457,
  "\u2581Se": 458,
  "\u00ed": 459,
  "fi": 460,
  "\u2581earth": 461,
  "\u043b\u0430": 462,
  "th": 463,
  "\u2581al": 464,
  "\u2581L": 465,
  "\u2581right": 466,
  "\u2581D": 467,
  "\u2581unto": 468,
  "ten": 469,
  "co": 470,
  "\u2581Ta": 471,
  "\u2581As": 472,
  "\u0432": 473,
  "jo": 474,
  "\u043d\u0435": 475,
  "zo": 476,
  "\u02bb": 477,
  "\u0437": 478,
  "\u2581Paul": 479,
  "nan": 480,
  "\u2581con": 481,
  "\u2581take": 482,
  "\u2581bo": 483,
  "\u2581new": 484,
  "\u2581Ko": 485,
  "et": 486,
  "\u2581La": 487,
  "\u2581tau": 488,
  "\u2581\u00bb": 489,
  "\u0634": 490,
  "\u043b\u0438": 491,
  "\u2581nu": 492,
  "kan": 493,
  "ji": 494,
  "tan": 495,
  "\u2581children": 496,
  "\u0648\u0647": 497,
  "\u2581g": 498,
  "\u2581\u06a9\u0647": 499,
  "\u2581\u0443": 500,
  "\u2581Why": 501,
  "ver": 502,
  "\u2581ge": 503,
  ".\"": 504,
  "\u2581must": 505,
  "\u2581T": 506,
  "\u2581years": 507,
  "el": 508,
  "\u2581after": 509,
  "\u121d": 510,
  "ngo": 511,
  "ze": 512,
  "ur": 513,
  "\u2581now": 514,
  "\u2581get": 515,
  "\u044f": 516,
  "\u044b": 517,
  "\u2581\u0626\u0647": 518,
  "\u2581two": 519,
  "\u2581ut": 520,
  "\u2581Christ": 521,
  "yi": 522,
  "\u25813": 523,
  "un": 524,
  "\u0644": 525,
  "\u2581Ne": 526,
  "ju": 527,
  "ter": 528,
  "\u2581down": 529,
  "\u2581vi": 530,
  "\u2581That": 531,
  "ad": 532,
  "\u2581Re": 533,
  "\u2581ny": 534,
  "os": 535,
  "\u2581v": 536,
  "\u2581ho": 537,
  "\u043c\u0430": 538,
  "hu": 539,
  "ste": 540,
  "ia": 541,
  "\u2581want": 542,
  "\u2581file": 543,
  "\u0161": 544,
  "\u0436": 545,
  "men": 546,
  "\u2581\u0434\u0430": 547,
  "ran": 548,
  "am": 549,
  "B": 550,
  "\u2581Ba": 551,
  "\u2581co": 552,
  "\u0447": 553,
  "\u2581\u0627": 554,
  "\u2581w": 555,
  "\u2581pro": 556,
  "\u2581\u062f\u0647": 557,
  "\u2581\u0437\u0430": 558,
  "\u2581Me": 559,
  "(": 560,
  "nya": 561,
  "\u2581being": 562,
  "\u09cd": 563,
  "\u2581Israel": 564,
  "\u2581Li": 565,
  "\u2581use": 566,
  "lar": 567,
  "\u2581Si": 568,
  "%": 569,
  "\u2581give": 570,
  "um": 571,
  "\u2581og": 572,
  "\u2581F": 573,
  "\u2581el": 574,
  "\u2581\u0644\u0647": 575,
  "\u2581against": 576,
  "\u2581ver": 577,
  "D": 578,
  "\u258119": 579,
  "gu": 580,
  "\u2581don": 581,
  "\u2581others": 582,
  "\u1275": 583,
  "chi": 584,
  "\u2581/": 585,
  "\u2581ro": 586,
  "\u2581van": 587,
  "\u2581ana": 588,
  "Name": 589,
  "tra": 590,
  "\u043d\u044b": 591,
  "\u062f\u0627": 592,
  "\u2581\u043f\u043e": 593,
  "vu": 594,
  "\u201c": 595,
  "\u2581paper": 596,
  "su": 597,
  "\u2581here": 598,
  "\u2581im": 599,
  "\u2581\u06fd": 600,
  "dan": 601,
  "\u2581well": 602,
  "ndi": 603,
  "pu": 604,
  "cu": 605,
  "\u2581Pa": 606,
  "\u064f": 607,
  "\u2581De": 608,
  "\u2581han": 609,
  "\u2581under": 610,
  "\u2581z": 611,
  "\u2581faka": 612,
  "\u2581des": 613,
  "\u2581An": 614,
  "\u0627": 615,
  "\u122d": 616,
  "\u2581Ha": 617,
  "\u2581para": 618,
  "\u2581\u0628": 619,
  "\u043a\u0430": 620,
  "\u2581\u0645": 621,
  "\u2581Te": 622,
  "\u2581kon": 623,
  "\u2581faith": 624,
  "\u2581own": 625,
  "\u043b\u0430\u0440": 626,
  "\u2581came": 627,
  "\u2581\u1362": 628,
  "M": 629,
  "\u2581kan": 630,
  "\u2581den": 631,
  "den": 632,
  "\u2581fi": 633,
  "san": 634,
  "\u0326": 635,
  "ina": 636,
  "\u2581yi": 637,
  "\u2581where": 638,
  "\u062f": 639,
  "\u2581h": 640,
  "\u2581lu": 641,
  "\u2581ru": 642,
  "\u043b\u0435": 643,
  "\u2581pu": 644,
  "\u2581Be": 645,
  "\u2581Mo": 646,
  "\u0441\u0430": 647,
  "\u0101": 648,
  "\u2581used": 649,
  "\u2581atu": 650,
  "\u0442\u0438": 651,
  "\u120d": 652,
  "\u2581pi": 653,
  "\u2581All": 654,
  "O": 655,
  "\u2581through": 656,
  "2": 657,
  "id": 658,
  "\u2581p": 659,
  "ut": 660,
  "\u2581set": 661,
  "\u2581ak": 662,
  "\u2581example": 663,
  "\u043d\u043e": 664,
  "\u2581son": 665,
  "gen": 666,
  "han": 667,
  "\u2581family": 668,
  "\u2581pag": 669,
  "\u2581qui": 670,
  "\u2581very": 671,
  "\u2581\u0627\u0644": 672,
  "\u00fd": 673,
  "\u2581av": 674,
  "\u2581another": 675,
  "\u00f3": 676,
  "\u2581upon": 677,
  "\u2581pre": 678,
  "\u2581x": 679,
  "ak": 680,
  "F": 681,
  "T": 682,
  "\u2581spirit": 683,
  "\u2581sin": 684,
  "\u2581Dios": 685,
  "\u2581gi": 686,
  "\u2581ad": 687,
  "\u2581\u00e0": 688,
  "\u2581\u0410": 689,
  "\u2581Ku": 690,
  "\u2581nan": 691,
  "\u2581let": 692,
  "aga": 693,
  "\u2581H": 694,
  "\u2581pou": 695,
  "\u2581ed": 696,
  "\u2581\u0631\u0627": 697,
  "nd": 698,
  "\u2581says": 699,
  "\u2581might": 700,
  "\u044b\u043d": 701,
  "\u17d2": 702,
  "\u2581Christian": 703,
  "ita": 704,
  "\u2581Mu": 705,
  "\u2035": 706,
  "\u0440\u0438": 707,
  "\u25815": 708,
  "\u2581away": 709,
  "\u2581back": 710,
  "\u00fa": 711,
  "\u2581great": 712,
  "\u2581heart": 713,
  "\u0f7c": 714,
  "\u0928": 715,
  "\u09a8": 716,
  "\u2581folder": 717,
  "\u2581Kingdom": 718,
  "\u2581David": 719,
  "\u2581Then": 720,
  "tar": 721,
  "N": 722,
  "\u0576": 723,
  "\u2581\u043d\u0435": 724,
  "\u0643": 725,
  "\u0642": 726,
  "\u2581ber": 727,
  "\u2581find": 728,
  "3": 729,
  "\u0432\u0430": 730,
  "\u0930": 731,
  "\u2581Christians": 732,
  "\u2581place": 733,
  "\u2581among": 734,
  "\u2581\u0627\u0648\u0631": 735,
  "\u25814": 736,
  "\u2581found": 737,
  "P": 738,
  "\u2581sang": 739,
  "\u04a3": 740,
  "\u258110": 741,
  "\u0440\u043e": 742,
  "\u2581page": 743,
  "mba": 744,
  "\u2581kuti": 745,
  "\u2581mau": 746,
  "\u2581nou": 747,
  "sti": 748,
  "\u2581mea": 749,
  "aki": 750,
  "\u2581true": 751,
  "\u2581del": 752,
  "\u2581think": 753,
  "\u0915": 754,
  "\u2581iti": 755,
  "lan": 756,
  "\u2581Le": 757,
  "\u2581dan": 758,
  "\u2581There": 759,
  "\u0442\u0435": 760,
  ">>ewe<<": 761,
  ">>sna<<": 762,
  ">>lin<<": 763,
  ">>toi_Latn<<": 764,
  ">>ceb<<": 765,
  ">>oss<<": 766,
  ">>run<<": 767,
  ">>mfe<<": 768,
  ">>ilo<<": 769,
  ">>zlm_Latn<<": 770,
  ">>pes<<": 771,
  ">>smo<<": 772,
  ">>hil<<": 773,
  ">>niu<<": 774,
  ">>sag<<": 775,
  ">>fij<<": 776,
  ">>cmn_Hans<<": 777,
  ">>nya<<": 778,
  ">>tso<<": 779,
  ">>war<<": 780,
  ">>gil<<": 781,
  ">>hau_Latn<<": 782,
  ">>umb<<": 783,
  ">>glv<<": 784,
  ">>tvl<<": 785,
  ">>ton<<": 786,
  ">>zul<<": 787,
  ">>kal<<": 788,
  ">>pag<<": 789,
  ">>cmn_Hant<<": 790,
  ">>pus<<": 791,
  ">>abk<<": 792,
  ">>pap<<": 793,
  ">>hat<<": 794,
  ">>mkd<<": 795,
  ">>tuk_Latn<<": 796,
  ">>yor<<": 797,
  ">>tuk<<": 798,
  ">>sqi<<": 799,
  ">>tir<<": 800,
  ">>mlg<<": 801,
  ">>tur<<": 802,
  ">>ido_Latn<<": 803,
  ">>mai<<": 804,
  ">>ibo<<": 805,
  ">>srp_Cyrl<<": 806,
  ">>srp_Latn<<": 807,
  ">>kir_Cyrl<<": 808,
  ">>heb<<": 809,
  ">>bos_Latn<<": 810,
  ">>bak<<": 811,
  ">>ast<<": 812,
  ">>som<<": 813,
  ">>tah<<": 814,
  ">>chv<<": 815,
  ">>kek_Latn<<": 816,
  "\u2581til": 817,
  ">>lug<<": 818,
  ">>vie<<": 819,
  ">>wln<<": 820,
  ">>isl<<": 821,
  ">>hye<<": 822,
  ">>mah<<": 823,
  ">>yue_Hant<<": 824,
  "\u2581fe": 825,
  ">>crh_Latn<<": 826,
  ">>amh<<": 827,
  ">>nds<<": 828,
  ">>pan_Guru<<": 829,
  ">>xho<<": 830,
  ">>ukr<<": 831,
  ">>cat<<": 832,
  ">>afr<<": 833,
  ">>tat<<": 834,
  ">>guj<<": 835,
  ">>jpn<<": 836,
  ">>mon<<": 837,
  ">>eus<<": 838,
  ">>nob<<": 839,
  ">>glg<<": 840,
  ">>ind<<": 841,
  ">>sin<<": 842,
  ">>cym<<": 843,
  ">>zho_Hant<<": 844,
  ">>zho_Hans<<": 845,
  ">>tgk_Cyrl<<": 846,
  ">>aze_Latn<<": 847,
  ">>ltz<<": 848,
  ">>bod<<": 849,
  ">>asm<<": 850,
  ">>tel<<": 851,
  ">>urd<<": 852,
  "\u258115": 853,
  ">>kaz_Cyrl<<": 854,
  ">>lat_Latn<<": 855,
  ">>gla<<": 856,
  ">>kan<<": 857,
  ">>bul<<": 858,
  ">>kin<<": 859,
  ">>ina_Latn<<": 860,
  ">>ron<<": 861,
  ">>spa<<": 862,
  ">>csb_Latn<<": 863,
  "\u2581person": 864,
  ">>iba<<": 865,
  ">>tha<<": 866,
  "\u2581\u0437": 867,
  ">>nno<<": 868,
  ">>hrv<<": 869,
  "\u2581much": 870,
  "\u2581same": 871,
  ">>fry<<": 872,
  "\u2581ve": 873,
  ">>bre<<": 874,
  ">>mar<<": 875,
  ">>sme<<": 876,
  "zu": 877,
  ">>swe<<": 878,
  ">>deu<<": 879,
  ">>jav<<": 880,
  ">>snd_Arab<<": 881,
  ">>ben<<": 882,
  ">>cmn<<": 883,
  ">>ces<<": 884,
  ">>ita<<": 885,
  ">>fin<<": 886,
  ">>por<<": 887,
  ">>hin<<": 888,
  ">>hun<<": 889,
  ">>mal<<": 890,
  ">>pol<<": 891,
  ">>fra<<": 892,
  ">>nld<<": 893,
  ">>epo<<": 894,
  ">>slv<<": 895,
  ">>hsb<<": 896,
  ">>kur_Latn<<": 897,
  ">>ori<<": 898,
  "ment": 899,
  ">>tam<<": 900,
  ">>bel<<": 901,
  ">>dan<<": 902,
  ">>ara<<": 903,
  ">>mya<<": 904,
  ">>rus<<": 905,
  ">>mri<<": 906,
  ">>est<<": 907,
  ">>uzb_Latn<<": 908,
  ">>lao<<": 909,
  "\u2581\u2013": 910,
  ">>yid<<": 911,
  "sh": 912,
  ">>uzb_Cyrl<<": 913,
  ">>uig_Arab<<": 914,
  "\u2581op": 915,
  ">>lit<<": 916,
  ">>zho<<": 917,
  ">>lav<<": 918,
  ">>ell<<": 919,
  "\u015f": 920,
  ">>kat<<": 921,
  "\u0431": 922,
  "\u2581most": 923,
  ">>gle<<": 924,
  "\u2581f": 925,
  "\u2581every": 926,
  "ler": 927,
  "dy": 928,
  "\u2581\u0431\u0430": 929,
  "ry": 930,
  ">>mlt<<": 931,
  "cha": 932,
  ">>khm<<": 933,
  "\u2581Da": 934,
  ">>oci<<": 935,
  "\u2581Ya": 936,
  "\u2581Witnesses": 937,
  "\u2581become": 938,
  "\u2581der": 939,
  "G": 940,
  "\u2581om": 941,
  ">>kur_Arab<<": 942,
  "\u0924": 943,
  "\u2581Ti": 944,
  "\u056b": 945,
  "\u043b\u043e": 946,
  "nda": 947,
  "\u2581each": 948,
  "4": 949,
  "\u2581ir": 950,
  "\u2581words": 951,
  "che": 952,
  "der": 953,
  "\u2581Jehova": 954,
  "\u00df": 955,
  "\u2581\u2022": 956,
  "\u2581part": 957,
  "\u06c1": 958,
  "ty": 959,
  "\u2581between": 960,
  "ana": 961,
  "\u2581che": 962,
  ">>ang_Latn<<": 963,
  "\u2581cu": 964,
  "\u2581Po": 965,
  "\u2581end": 966,
  "\u2581whom": 967,
  "\u2581truth": 968,
  "\u2581nak": 969,
  "\u2581His": 970,
  "\u2581show": 971,
  "\u2581death": 972,
  "\u2581Is": 973,
  "\u0f0b": 974,
  "\u2581aba": 975,
  "\u0650": 976,
  "\u2581Ki": 977,
  "\u2581wo": 978,
  "\u0932": 979,
  "fe": 980,
  "\u25813:": 981,
  "\u2581given": 982,
  "\u2581les": 983,
  "fu": 984,
  "\u2581ji": 985,
  "\u2581\u0421": 986,
  "\u2581laj": 987,
  "\u2581il": 988,
  "\u2581V": 989,
  "\u2581vaka": 990,
  "\u0639": 991,
  "\u2581Ni": 992,
  "\u2581\"%": 993,
  "\u2581\u0647\u0647": 994,
  "\u00e8": 995,
  "\u0632": 996,
  "\u00fc": 997,
  "\u2581house": 998,
  "\u2581Mi": 999,
  "\u2581\u0964": 1000,
  "\u1293": 1001,
  "eb": 1002,
  "ine": 1003,
  "\u0442\u043e": 1004,
  "\u2581put": 1005,
  "\u2581congregation": 1006,
  "\u2581\u062a\u0648": 1007,
  "V": 1008,
  "nge": 1009,
  "\u2581too": 1010,
  "\u2581kai": 1011,
  "\u2581ei": 1012,
  "\u043c\u0435": 1013,
  "\u09f0": 1014,
  "\u064a\u0629": 1015,
  "1": 1016,
  "\u2581\u00e1": 1017,
  "\u0629": 1018,
  "\u2581\u0645\u0646": 1019,
  "\u0259": 1020,
  "\u2581information": 1021,
  "nde": 1022,
  "\u0628": 1023,
  "que": 1024,
  "\u2581Ra": 1025,
  "\u2581'%": 1026,
  "\u2581word": 1027,
  "\u2581ndi": 1028,
  "\u2581never": 1029,
  "ngi": 1030,
  "\u2581Can": 1031,
  "\u2581\u0442\u0430": 1032,
  "\u2581message": 1033,
  "tion": 1034,
  "\u2581au": 1035,
  "\u2581R": 1036,
  "\u093e": 1037,
  "paper": 1038,
  "\u2581ch": 1039,
  "\u0434\u0438": 1040,
  "\u2581faa": 1041,
  "\u0105": 1042,
  "ngu": 1043,
  "\u2581non": 1044,
  "\u2581She": 1045,
  "\u2581eo": 1046,
  "\u0627\u0646": 1047,
  "\u2581Ja": 1048,
  "\u2581iya": 1049,
  "\u2581keep": 1050,
  "\u2581\u1021": 1051,
  "tor": 1052,
  "\u2581\u0432\u0430": 1053,
  "\u2581ama": 1054,
  "\u2581days": 1055,
  "\u2581New": 1056,
  "H": 1057,
  "\u25812:": 1058,
  "ndo": 1059,
  "ria": 1060,
  "\u2581\u0646\u0647": 1061,
  "len": 1062,
  "em": 1063,
  "\u2581Bu": 1064,
  "\u1235": 1065,
  "ban": 1066,
  "\u2581som": 1067,
  "n\u00e9": 1068,
  "\u2581ones": 1069,
  "\u2581without": 1070,
  "\u00e3": 1071,
  "\u2581gu": 1072,
  "\u00e0": 1073,
  "rin": 1074,
  "\u2581spiritual": 1075,
  "\u2581ap": 1076,
  "\u2581hand": 1077,
  "\u2581zi": 1078,
  "\u0434\u0435": 1079,
  "\u2581Di": 1080,
  "U": 1081,
  "nt": 1082,
  "\u2581why": 1083,
  "\u043a\u0438": 1084,
  "\u2581while": 1085,
  "\u2581system": 1086,
  "\u06cc\u0647": 1087,
  "\u2581tal": 1088,
  "\u0646\u062f": 1089,
  "\u2581long": 1090,
  "\u2581nag": 1091,
  "\u2581sing": 1092,
  "\u2581On": 1093,
  "\u25817": 1094,
  "\u2581\u0589": 1095,
  "ul": 1096,
  "\u2581\u0627\u0644\u0645": 1097,
  "min": 1098,
  "\u2581es": 1099,
  "\u2581human": 1100,
  "\u2581believe": 1101,
  "\u2581\u0418": 1102,
  "\u2581ena": 1103,
  "\u2581\u0441\u043e": 1104,
  "),": 1105,
  "\u044e": 1106,
  "\u2581\u1361": 1107,
  "\u2581open": 1108,
  "\u0434\u0430\u043d": 1109,
  "\u25816": 1110,
  "\u2581land": 1111,
  ">>kaz_Latn<<": 1112,
  "\u2581thou": 1113,
  "\u0646\u0649": 1114,
  "\u06a9": 1115,
  "tt": 1116,
  "\u2581jo": 1117,
  "\u2581year": 1118,
  "lla": 1119,
  "\u548c": 1120,
  "\u2581En": 1121,
  "\u2581John": 1122,
  "\u2581ce": 1123,
  "\u2581ju": 1124,
  "\u2581important": 1125,
  "\u2581times": 1126,
  "\u258112": 1127,
  "\u2581My": 1128,
  "\u2581brothers": 1129,
  "\u2581sent": 1130,
  "mbo": 1131,
  "\u2581means": 1132,
  "\u2581por": 1133,
  "\u2581number": 1134,
  "\u2581X": 1135,
  ">>wol<<": 1136,
  "\u2581ek": 1137,
  "\u044c": 1138,
  "qa": 1139,
  "nye": 1140,
  "\u2581Lo": 1141,
  "\u25818": 1142,
  "\u2581\u0644": 1143,
  "\u2581zo": 1144,
  "\u2581\u043e": 1145,
  "\u06cc\u0627\u0646": 1146,
  ">>sun<<": 1147,
  "\u2581pri": 1148,
  "\u2581fo": 1149,
  "\u00ea": 1150,
  "\u0648\u0646": 1151,
  "\u2581saying": 1152,
  "\u2581today": 1153,
  "\u0f42": 1154,
  "\u0441\u0435": 1155,
  "\u043e\u043d": 1156,
  "\u2581bwa": 1157,
  "wu": 1158,
  "\u2581One": 1159,
  "\u2581himself": 1160,
  "\u4e86": 1161,
  "\u2581\u0622\u06be\u064a": 1162,
  "\u0a30": 1163,
  "able": 1164,
  "\u258120": 1165,
  "\u25811:": 1166,
  "\u10e1": 1167,
  "\u2581went": 1168,
  "per": 1169,
  ">>chr<<": 1170,
  "\u2581again": 1171,
  "ck": 1172,
  "\u0cb0": 1173,
  "\u1265": 1174,
  "\u043b\u044b": 1175,
  "\u2581Satan": 1176,
  "\u25814:": 1177,
  "\u2581Wa": 1178,
  "\u04d5": 1179,
  "\u043c\u0438": 1180,
  "\u00f5": 1181,
  "\u10d8": 1182,
  "\u04af": 1183,
  "\u2581order": 1184,
  "\u09b0": 1185,
  "\u2581\u062a\u0647": 1186,
  "\u017e": 1187,
  "\u2581ag": 1188,
  "shi": 1189,
  "\u2581called": 1190,
  "\u2581(_": 1191,
  "\u2581W": 1192,
  "\u2581Je": 1193,
  "\u2581three": 1194,
  "\u2581feel": 1195,
  ">>tat_Latn<<": 1196,
  "\u2581het": 1197,
  "\u2581t\u00eb": 1198,
  "\u0627\u062a": 1199,
  "\u2581States": 1200,
  "tha": 1201,
  "ren": 1202,
  "\u2581Atua": 1203,
  "\u2581\u0435": 1204,
  "\u2581image": 1205,
  "\u2581ara": 1206,
  "\u0f66\u0f0b": 1207,
  "\u2581Could": 1208,
  "\u2581European": 1209,
  "\u2581At": 1210,
  "\u2581\u043a\u0438": 1211,
  "Y": 1212,
  "R": 1213,
  "\u2581off": 1214,
  "gan": 1215,
  "\u13c2": 1216,
  "\u0947": 1217,
  "\u04d9": 1218,
  "ven": 1219,
  "\u2581\u0441\u0435": 1220,
  "tur": 1221,
  "\u25811,": 1222,
  "sha": 1223,
  "\u2581Bi": 1224,
  "\u2581Peter": 1225,
  "\u2581\u06a9\u06d2": 1226,
  "L": 1227,
  "\u0561\u0580": 1228,
  "\u00e4": 1229,
  "\u2581\u043a": 1230,
  "\u13b5": 1231,
  "\u2581Ke": 1232,
  "\u2581yang": 1233,
  "ua": 1234,
  "\u0902": 1235,
  "kwa": 1236,
  "\u2581going": 1237,
  "\u093f": 1238,
  "\u06a9\u0647": 1239,
  "\u2581kwa": 1240,
  "\u2581Yehova": 1241,
  "\u2581med": 1242,
  "im": 1243,
  "\u25815:": 1244,
  "ol": 1245,
  "kin": 1246,
  "\u043e": 1247,
  "\u2581oo": 1248,
  "\u025b": 1249,
  "\u2581king": 1250,
  "\u2581still": 1251,
  "mwe": 1252,
  "\u2581By": 1253,
  ">>mhr<<": 1254,
  "lle": 1255,
  "\u2581both": 1256,
  "\u12f5": 1257,
  "ek": 1258,
  "\u2581\u06a9\u064a": 1259,
  "\u2581young": 1260,
  "\u2581vo": 1261,
  "\u2581\u0434\u043e": 1262,
  "sto": 1263,
  "\u09c7": 1264,
  "\u2581fai": 1265,
  "\u067e": 1266,
  "\u09c1": 1267,
  "\u2581told": 1268,
  "\u2581af": 1269,
  "\u2581gave": 1270,
  "\u2581Un": 1271,
  "au": 1272,
  "\u2581Article": 1273,
  "\u2581home": 1274,
  "\u043c\u043e": 1275,
  "\u2581got": 1276,
  "\u00f2": 1277,
  "sia": 1278,
  "\u2581father": 1279,
  "\u2581view": 1280,
  "\u2581*": 1281,
  "\u2581\u062a": 1282,
  "\u2581met": 1283,
  "\u2581Let": 1284,
  "fo": 1285,
  "\u04d7": 1286,
  "\u2581power": 1287,
  "\u2581\u044f": 1288,
  "\u2581\u00e9": 1289,
  "\u2581par": 1290,
  "\u2581Our": 1291,
  "\u2581doing": 1292,
  "cho": 1293,
  "\u2581parents": 1294,
  "\u0cc1": 1295,
  "\u0631\u0627": 1296,
  "\u2581nor": 1297,
  "\u00e6": 1298,
  "\u2581\u062c\u0648": 1299,
  ">>tyv<<": 1300,
  "\u0107": 1301,
  "\u2581\u0626\u0627": 1302,
  "\u2581read": 1303,
  "K": 1304,
  "\u2581Ca": 1305,
  "ton": 1306,
  "\u2581\u13a0\u13b4": 1307,
  "\u04ab": 1308,
  "\u258130": 1309,
  "\u2581service": 1310,
  "\u2581\u06c1\u06d2": 1311,
  "\u2581something": 1312,
  "\u2581cha": 1313,
  "\u0f66": 1314,
  "\u0942": 1315,
  "\u2581ae": 1316,
  "\u2581Moses": 1317,
  "\u2581ala": 1318,
  "\u017c": 1319,
  "ner": 1320,
  "\u0442\u044b": 1321,
  "\u12ed": 1322,
  "5": 1323,
  "\u2581ou": 1324,
  "xa": 1325,
  "\u2581Commission": 1326,
  "\u05df": 1327,
  "n\u00ed": 1328,
  "\u13d7": 1329,
  "t\u00e9": 1330,
  "\u2581\u0423": 1331,
  "\u2581Hi": 1332,
  "ah": 1333,
  "\u2581themselves": 1334,
  "\u0f60": 1335,
  "\u0633\u062a": 1336,
  "\u662f": 1337,
  "qui": 1338,
  "\u2581\u062f\u0631": 1339,
  "\u2581bann": 1340,
  "\u2581p\u00e5": 1341,
  "\u09ac": 1342,
  "\u25816:": 1343,
  "\u2581together": 1344,
  "\u2581Ri": 1345,
  "sin": 1346,
  "\u2581Read": 1347,
  "\u2581yn": 1348,
  "\u2581Father": 1349,
  "\u2581kita": 1350,
  "tre": 1351,
  "\u0ca6": 1352,
  "\u2581bring": 1353,
  "mbi": 1354,
  "\u2581ao": 1355,
  "\u0434\u044b": 1356,
  "ers": 1357,
  "\u258118": 1358,
  "\u2581old": 1359,
  "ken": 1360,
  "\u043a\u043e": 1361,
  "\u2581done": 1362,
  "\u1793": 1363,
  "\u0430\u043d": 1364,
  "\u2581took": 1365,
  "\u2581really": 1366,
  "\u2581though": 1367,
  "\u2581following": 1368,
  "\u0444": 1369,
  "\u2581learn": 1370,
  "\u13a2": 1371,
  "\u2581\u12e8": 1372,
  "\u2581cannot": 1373,
  "\u0938": 1374,
  "\u2581Go": 1375,
  "\u2581Word": 1376,
  "\u2581\u06a9\u06cc": 1377,
  "\u0637": 1378,
  "\u0142": 1379,
  "\u09bf": 1380,
  "\u0644\u0627": 1381,
  "\u2581tell": 1382,
  "\u2581\u043a\u0430": 1383,
  "\u2581full": 1384,
  "ai": 1385,
  "\u2581However": 1386,
  "\u13db": 1387,
  "yan": 1388,
  "\u2581last": 1389,
  "\u2581\u1260": 1390,
  "\u2581tatou": 1391,
  "tia": 1392,
  "lik": 1393,
  "\u0446": 1394,
  "\u201d": 1395,
  "\u00eb": 1396,
  "\u0447\u0430": 1397,
  "\u25819": 1398,
  "\u2581Now": 1399,
  "\u2581during": 1400,
  "\u2581kgm": 1401,
  "\u1308": 1402,
  "\u2581\u0641\u064a": 1403,
  "\u2581\u1ecd": 1404,
  "\u044b\u0440": 1405,
  "xi": 1406,
  "\u2581worship": 1407,
  "\u2581left": 1408,
  "\u2581peace": 1409,
  "ts": 1410,
  "\u2581Yes": 1411,
  "\u2581study": 1412,
  "dzi": 1413,
  "\u10d0": 1414,
  "tsa": 1415,
  "\u2581live": 1416,
  "\u12cd": 1417,
  "\u2581J": 1418,
  "\u0430\u0440": 1419,
  "bal": 1420,
  "\u0a47": 1421,
  "qu": 1422,
  ">>rom<<": 1423,
  "\u2581sa\u00df": 1424,
  "ber": 1425,
  "\u2581little": 1426,
  "\u2581Tu": 1427,
  "ise": 1428,
  "\u2581tan": 1429,
  "\u00f4": 1430,
  "\u2581support": 1431,
  "\u2581Vi": 1432,
  "\u2581Bo": 1433,
  "\u2581look": 1434,
  "W": 1435,
  "lin": 1436,
  "\u0433\u0430\u043d": 1437,
  "ire": 1438,
  "\u2581vu": 1439,
  "\u0437\u0430": 1440,
  "\u258111": 1441,
  "ot": 1442,
  "\u2581course": 1443,
  "\u2581law": 1444,
  "\u13c5": 1445,
  "\u0b3e": 1446,
  "\u0447\u0435": 1447,
  "ske": 1448,
  "\u2581hu": 1449,
  "\u2581wife": 1450,
  "\u0431\u0430": 1451,
  "\u2581close": 1452,
  "\u2581far": 1453,
  "\u0433\u0435": 1454,
  "\u2581bir": 1455,
  "\u05d8": 1456,
  "\u044b\u043b": 1457,
  "kon": 1458,
  "\u2581ug": 1459,
  "\u00f1a": 1460,
  "\u0645\u0627\u0646": 1461,
  "\u2581data": 1462,
  "\u2581Ho": 1463,
  "\u2581kua": 1464,
  "\u09b2": 1465,
  "\u0580": 1466,
  "ite": 1467,
  "\u0941": 1468,
  "nder": 1469,
  "\u2581t\u00f3": 1470,
  "\u2581cho": 1471,
  "\u0433\u043e": 1472,
  "\u2581\u13a4": 1473,
  "\u0995": 1474,
  "r\u00e9": 1475,
  "\u2581r": 1476,
  "\u2581um": 1477,
  "\u2581und": 1478,
  "\u2581tra": 1479,
  ">>cha<<": 1480,
  "\u2581Al": 1481,
  "\u09a4": 1482,
  "\u2581\u043c\u0430": 1483,
  "ile": 1484,
  "\u2581able": 1485,
  "\u2581Co": 1486,
  "\u2581thy": 1487,
  "\u2581aka": 1488,
  "\u2581ua": 1489,
  ">>kab<<": 1490,
  "pan": 1491,
  "\u2581\u043e\u0442": 1492,
  "dir": 1493,
  "\u120b": 1494,
  "\u0940": 1495,
  "\u0441\u0442": 1496,
  "\u2581Your": 1497,
  "\u2581always": 1498,
  "\u2581thee": 1499,
  "\u2581\u0646": 1500,
  "\u2581xa": 1501,
  "\u03bb": 1502,
  "ene": 1503,
  "tro": 1504,
  "\u0c02": 1505,
  "\u044a": 1506,
  "\u2581\u0442\u043e": 1507,
  "yn": 1508,
  "ci\u00f3n": 1509,
  "\u2581city": 1510,
  "\u2581\u06a9\u0648": 1511,
  "\u0ca8": 1512,
  "\u2581Show": 1513,
  "\u2581\u05d4": 1514,
  "nie": 1515,
  "\u2581better": 1516,
  "pp": 1517,
  "\u03c4": 1518,
  "mbe": 1519,
  "\u2581knowledge": 1520,
  "\u0cbe": 1521,
  "son": 1522,
  "\u0568": 1523,
  "\u0c28": 1524,
  "\u049b": 1525,
  "ski": 1526,
  "\u00e2": 1527,
  "fer": 1528,
  "\u2581em": 1529,
  "\u0448\u0430": 1530,
  "\u2581text": 1531,
  "tin": 1532,
  "\u0acb": 1533,
  "\u2581det": 1534,
  "\u0440\u0435": 1535,
  "\u2581maka": 1536,
  "\u2581therefore": 1537,
  "\u0113": 1538,
  "\u0442\u0430\u0440": 1539,
  "\u0435\u043d": 1540,
  "\u2581until": 1541,
  "\u2581Jerusalem": 1542,
  "\u5728": 1543,
  "\u2581ask": 1544,
  "\u0628\u0647": 1545,
  "\u00f1": 1546,
  "\u2581una": 1547,
  "\u2581nei": 1548,
  "ning": 1549,
  "nes": 1550,
  "ring": 1551,
  "\u2581Con": 1552,
  "\u2581\u0442\u0435": 1553,
  "\u2581hope": 1554,
  "\u2581Z": 1555,
  "ling": 1556,
  "\u2581\u043c\u0435": 1557,
  "\u0440\u0443": 1558,
  "\u2581est": 1559,
  "ster": 1560,
  "\u04d1": 1561,
  "\u2581disciples": 1562,
  ">>nav<<": 1563,
  "\u2581thing": 1564,
  "\u2581\u062c\u064a": 1565,
  "\u2581mind": 1566,
  "ach": 1567,
  "ic": 1568,
  "mas": 1569,
  "\u2581Yahweh": 1570,
  "\u2581water": 1571,
  "\u03b3": 1572,
  "\u2581child": 1573,
  "\u2581Who": 1574,
  "\u2581\u0627\u0646": 1575,
  "tta": 1576,
  "\u2581LORD": 1577,
  "\u2581\u00f2": 1578,
  "\u2581era": 1579,
  "\u2581Su": 1580,
  "\u2581book": 1581,
  "mos": 1582,
  "\u179a": 1583,
  "\u258114": 1584,
  "\u2581holy": 1585,
  "\u0432\u043e": 1586,
  "\u0932\u093e": 1587,
  "\u2581brother": 1588,
  "\u2581faithful": 1589,
  "\u2581saw": 1590,
  "\u2581Ga": 1591,
  "\u2581kau": 1592,
  "\u2581apostle": 1593,
  "\u2581mata": 1594,
  "\u2581brought": 1595,
  "\u0447\u0438": 1596,
  "\u2581women": 1597,
  "\u2581\u0633\u06d2": 1598,
  "ation": 1599,
  "\u2581Pi": 1600,
  "ona": 1601,
  ">>arg<<": 1602,
  "\u2581having": 1603,
  "\u2581\u0906": 1604,
  "\u2581United": 1605,
  "\u2581Some": 1606,
  "\u1208": 1607,
  "\u13a9": 1608,
  "\u2581servants": 1609,
  "\u2581best": 1610,
  "\u2581Are": 1611,
  "nn": 1612,
  "\u2581ever": 1613,
  "\u2581face": 1614,
  "\u1ecd": 1615,
  "The": 1616,
  "\u12a5": 1617,
  "\u2581Name": 1618,
  "\u2581Ge": 1619,
  "\u2581Pro": 1620,
  "\u06c7": 1621,
  "\u0627\u0644": 1622,
  "\u258125": 1623,
  "\u044b\u043c": 1624,
  "\u2581fear": 1625,
  "isi": 1626,
  "\u2581Not": 1627,
  "\u2581Pe": 1628,
  "\u2581\u0905": 1629,
  "\u06d0": 1630,
  "\u2581yet": 1631,
  "\u0647\u0627": 1632,
  "\u00e7": 1633,
  "ska": 1634,
  "\u2581\u0b85": 1635,
  "\u06d2": 1636,
  "tes": 1637,
  "r\u00e1": 1638,
  "\u0301": 1639,
  "\u2581bar": 1640,
  "\u0ab0": 1641,
  "\u2581wi": 1642,
  "\u258124": 1643,
  "l\u00e9": 1644,
  "\u2581became": 1645,
  "@": 1646,
  "\u2581\u13a0": 1647,
  "\u2581Oh": 1648,
  "\u0433\u04d9": 1649,
  "\u2581sure": 1650,
  "\u2581news": 1651,
  "\u2581Ut": 1652,
  "\u2581Y": 1653,
  "\u2581com": 1654,
  "\u062e": 1655,
  "\u2581iz": 1656,
  "ben": 1657,
  "\u2581Jo": 1658,
  "\u2581After": 1659,
  "\u091f": 1660,
  "\u2581Abraham": 1661,
  "\u2581\u0628\u06c6": 1662,
  ">>khm_Latn<<": 1663,
  "thi": 1664,
  "\u2581different": 1665,
  "sion": 1666,
  "\u043b\u0430\u043d": 1667,
  "\u2581files": 1668,
  "\u0c30": 1669,
  "\u2581\u0431\u0435\u0440": 1670,
  ">>bul_Latn<<": 1671,
  "\u0438\u043b": 1672,
  "\u092e": 1673,
  "\u0438\u043d": 1674,
  "\u062f\u0647": 1675,
  "by": 1676,
  "\u258116": 1677,
  "idh": 1678,
  "\u2581list": 1679,
  "\u5e74": 1680,
  "\u043a\u0443": 1681,
  "\u2581heaven": 1682,
  "\u2581Or": 1683,
  "\u1273": 1684,
  "\u2581\u0645\u06cc\u06ba": 1685,
  "om": 1686,
  "\u2581serve": 1687,
  "\u0924\u093e": 1688,
  "est": 1689,
  "\u2581Member": 1690,
  "nik": 1691,
  "\u13c3": 1692,
  "\u00f9": 1693,
  "\u2581aku": 1694,
  "\u2581\u104b": 1695,
  "\u2581\u0627\u0627\u0644\u0644\u0647": 1696,
  "dza": 1697,
  "land": 1698,
  "\u2581\u1218": 1699,
  "\u2581\u043f\u0440\u043e": 1700,
  "oni": 1701,
  "\u06aa": 1702,
  "\u2581case": 1703,
  "\u06be": 1704,
  "ie": 1705,
  "\u0d46": 1706,
  "\u2581night": 1707,
  "\u2581\u13be\u13cd\u13a9": 1708,
  "ala": 1709,
  "\u130d": 1710,
  "tte": 1711,
  "\u2581\u0431": 1712,
  "\u2581os": 1713,
  "\u13be": 1714,
  "\u03c5": 1715,
  "\u2581n\u00ed": 1716,
  "\u0964": 1717,
  "\u2581type": 1718,
  "\u0578\u0582\u0574": 1719,
  "\u2581Va": 1720,
  "\u2581\u0445": 1721,
  "\u2581\u0e97\u0eb5\u0ec8": 1722,
  "\u2581\u062e\u0648\u0627": 1723,
  "\u0441\u0438": 1724,
  "\u0c35": 1725,
  "\u25811.": 1726,
  "\u2581...": 1727,
  "\u2581mar": 1728,
  "\u2581already": 1729,
  "k\u00df": 1730,
  "\u2581Fa": 1731,
  "uta": 1732,
  "xe": 1733,
  "\u2581These": 1734,
  "yu": 1735,
  "\u2581Council": 1736,
  "\u0db8": 1737,
  "\u09ae": 1738,
  "\u044b\u0448": 1739,
  "00": 1740,
  "\u2581free": 1741,
  "\u1228": 1742,
  "\u2581car": 1743,
  "ion": 1744,
  "nia": 1745,
  "kar": 1746,
  "ser": 1747,
  "\u2581war": 1748,
  "\u2581window": 1749,
  "\u2581care": 1750,
  "\u2581certain": 1751,
  "\u0f74": 1752,
  "\u2581wrote": 1753,
  "\u2581\u0442": 1754,
  "\u2581oyo": 1755,
  "\u2581ilo": 1756,
  "\u0932\u0947": 1757,
  "\u2581Du": 1758,
  "ali": 1759,
  "\u2581mean": 1760,
  "\u0da7": 1761,
  "\u064a\u0646": 1762,
  "ab": 1763,
  "\u00f0": 1764,
  "\u2581\u6211": 1765,
  "\u2581dia": 1766,
  "\u2581!": 1767,
  "\u2581account": 1768,
  "\u2581heard": 1769,
  "\u2581seen": 1770,
  "\u043e\u0432": 1771,
  "\u2581next": 1772,
  "ama": 1773,
  "tik": 1774,
  "\u0686": 1775,
  "\u03c3": 1776,
  "\u2581\u067e": 1777,
  "hia": 1778,
  "\u25812.": 1779,
  "od": 1780,
  "\u2581ayeke": 1781,
  "\u0f7a": 1782,
  "\u0119": 1783,
  "\u043b\u044c": 1784,
  "ik": 1785,
  "\u0a40": 1786,
  "\u2581ways": 1787,
  "\u2581possible": 1788,
  "\u2581\u04bb\u04d9\u043c": 1789,
  "\u2581With": 1790,
  "\u0dc0": 1791,
  "\u2581personal": 1792,
  "\u2581\u306e": 1793,
  "\u2581within": 1794,
  "\u010d": 1795,
  "\u2581call": 1796,
  "\u2581ona": 1797,
  "lt": 1798,
  "\u2581mag": 1799,
  "ig": 1800,
  "\u2581living": 1801,
  "\u2581around": 1802,
  "\u0584": 1803,
  "\u2581\u0627\u0644\u0644\u0647": 1804,
  "\u0939": 1805,
  "\u2581ex": 1806,
  "\u0e23": 1807,
  "l\u00e1": 1808,
  "\u0b4d": 1809,
  "ate": 1810,
  "\u2581later": 1811,
  "\u0430\u0442": 1812,
  "\u0627\u06cc": 1813,
  "\u2581kar": 1814,
  "\u0c32": 1815,
  "\u0648\u0644": 1816,
  "\u2581high": 1817,
  "ag": 1818,
  "\u043d\u0456": 1819,
  "\u2581los": 1820,
  "\u2581agus": 1821,
  "\u258113": 1822,
  "\u05e2": 1823,
  "6": 1824,
  "\u0437\u0438": 1825,
  "\u0254": 1826,
  "\u092a": 1827,
  "Comment": 1828,
  "des": 1829,
  "\u2581understand": 1830,
  "\u13a6": 1831,
  "\u0435\u043c": 1832,
  "\u2581change": 1833,
  "\u0935": 1834,
  "\u2581asked": 1835,
  "\u2581\u041e": 1836,
  "\u04a1": 1837,
  "\u2581gen": 1838,
  "\u2581\u0434": 1839,
  "ini": 1840,
  "ger": 1841,
  "\u0cbf": 1842,
  "\u2581fu": 1843,
  "\u0dbb": 1844,
  "\u0641": 1845,
  "\u1290": 1846,
  "\u043f\u0430": 1847,
  "tus": 1848,
  "bra": 1849,
  "\u2581article": 1850,
  "\u13af": 1851,
  "\u0440\u044b": 1852,
  "\u0635": 1853,
  "\u2581\u043c\u043e": 1854,
  "kwe": 1855,
  "\u2581often": 1856,
  "\u2581\u0441\u0430": 1857,
  "\u2581selected": 1858,
  "\u2581\u0627\u0632": 1859,
  "\u2581nya": 1860,
  "\u2581Son": 1861,
  "\u2581Regulation": 1862,
  "\u2581making": 1863,
  "\u2581ter": 1864,
  "\u2581mother": 1865,
  "\u2581ata": 1866,
  "\u0f58": 1867,
  "\u0645\u0627": 1868,
  "\u3001": 1869,
  "\u2581Ro": 1870,
  "\u2581dead": 1871,
  "\u2581Ar": 1872,
  "\u2581\u062f": 1873,
  "adh": 1874,
  "\u2581fact": 1875,
  "\u062d": 1876,
  "\u2581\u0646\u0627": 1877,
  "\u2581iyo": 1878,
  "\u0f56": 1879,
  "\u0d2f": 1880,
  "\u0131": 1881,
  "\u2581value": 1882,
  "\u2581sy": 1883,
  "\u258117": 1884,
  "\u0173": 1885,
  "\u2581taken": 1886,
  "\u0432\u0438": 1887,
  "mp": 1888,
  "\u2581respect": 1889,
  "\u2581f\u00f6r": 1890,
  "\u2581Za": 1891,
  "\u2581p\u00e9": 1892,
  "\u010di": 1893,
  "\u2581turn": 1894,
  "\u03bc": 1895,
  "bar": 1896,
  "\u2581\u0628\u0631": 1897,
  "\u2581\u062a\u0627": 1898,
  "\u2581eyes": 1899,
  "\u2581evil": 1900,
  "\u0d4d": 1901,
  "\u2581Ye": 1902,
  "\u2581nothing": 1903,
  "sch": 1904,
  "ux": 1905,
  "\u1798": 1906,
  "\u2581t\u00ed": 1907,
  "\u2581var": 1908,
  "\u2581consider": 1909,
  "\u045e": 1910,
  "\u0646\u0627": 1911,
  "\u2581ora": 1912,
  "ada": 1913,
  "\u2581\u201e": 1914,
  "tal": 1915,
  "\u0c28\u0c41": 1916,
  "aj": 1917,
  "\u0430\u0440\u0430": 1918,
  "):": 1919,
  "lia": 1920,
  "\u0e21": 1921,
  "\u043e\u043c": 1922,
  "\u062b": 1923,
  "raa": 1924,
  "\u2581Nu": 1925,
  "\u094b": 1926,
  "\u102c": 1927,
  "\u2581har": 1928,
  "\u05e1": 1929,
  "\u05dc": 1930,
  "ndu": 1931,
  "ble": 1932,
  "\u0c28\u0c3f": 1933,
  "\u064e": 1934,
  "\u2581speak": 1935,
  "\u2581\u0567": 1936,
  "iti": 1937,
  "\u2581including": 1938,
  "\u2581kas": 1939,
  "\u0448\u0435": 1940,
  "\u2581\u00ec": 1941,
  "\u2581woman": 1942,
  "lig": 1943,
  "\u2581%1": 1944,
  "\u0cb2": 1945,
  "\u00bb": 1946,
  "\u0926": 1947,
  "\u0e19": 1948,
  "\u0bb5": 1949,
  "\u2581ser": 1950,
  "\u2581isa": 1951,
  "\u2581sam": 1952,
  "\u2581och": 1953,
  "\u2581kuma": 1954,
  "\u2581body": 1955,
  "\u0d02": 1956,
  "\u2581Picture": 1957,
  "\u2581wrong": 1958,
  "tas": 1959,
  "\u2581available": 1960,
  "\u2581point": 1961,
  "\u2581ira": 1962,
  "las": 1963,
  "ks": 1964,
  "\u0a28": 1965,
  "\u2581group": 1966,
  "\u2581\u0915": 1967,
  "\u0441\u044c": 1968,
  "\u2581\u067e\u0631": 1969,
  "\u04e9": 1970,
  "\u2581\u0623": 1971,
  "\u2581reason": 1972,
  "\u1218": 1973,
  "\u2581ministry": 1974,
  "\u2581Open": 1975,
  "\u25814.": 1976,
  "\u12eb": 1977,
  "\u0a32": 1978,
  "\u2581control": 1979,
  "\u2581Well": 1980,
  "\u2581public": 1981,
  "\u2581ini": 1982,
  "ting": 1983,
  "ap": 1984,
  "\u0493\u0430": 1985,
  "\u2581nie": 1986,
  "nis": 1987,
  "\u2581lan": 1988,
  "uma": 1989,
  "one": 1990,
  "\u2581\u062c\u0627": 1991,
  "\u2581light": 1992,
  "\u0f72": 1993,
  "\u2581future": 1994,
  "\u2581tin": 1995,
  ">>udm<<": 1996,
  "\u2581tama": 1997,
  "ron": 1998,
  "\u2581\u12a3": 1999,
  "ky": 2000,
  "ip": 2001,
  "\u2581\u12a0": 2002,
  "una": 2003,
  "\u2581ratou": 2004,
  "\u09aa": 2005,
  "\u06b5": 2006,
  "\u2581began": 2007,
  "\u1794": 2008,
  "\u0abe": 2009,
  "\u2581vei": 2010,
  "\u03ac": 2011,
  "aka": 2012,
  "\u2581\u0938": 2013,
  "\u2581xi": 2014,
  "\u03c7": 2015,
  "\u00ee": 2016,
  "\u2581\u0628\u0627": 2017,
  "\u2581\u1295": 2018,
  "\u2581whether": 2019,
  "\u4eba": 2020,
  "\u0ea1": 2021,
  "ang": 2022,
  "\u2581\u0645\u06cc": 2023,
  "\u2581cause": 2024,
  "k\u00e9": 2025,
  "\u2581\u0144": 2026,
  "\u2581Error": 2027,
  "uti": 2028,
  "\u0442\u0435\u0440": 2029,
  "\u2581\u0622": 2030,
  "EC": 2031,
  "mma": 2032,
  "tos": 2033,
  "wan": 2034,
  "\u0435\u0442": 2035,
  "\u0561\u0576": 2036,
  "\u2581gui": 2037,
  "\u0d32": 2038,
  "\u1209": 2039,
  "yon": 2040,
  "\u2581provided": 2041,
  ">>quc<<": 2042,
  "\u2581\u043f\u0430": 2043,
  "les": 2044,
  "\u2581mana": 2045,
  "\u2581according": 2046,
  "\u2581follow": 2047,
  "\u258131": 2048,
  "\u179f": 2049,
  "\u062a\u0627": 2050,
  "\u0263": 2051,
  "ira": 2052,
  "pha": 2053,
  "\u05d4": 2054,
  "\u2581Ver": 2055,
  "\u0443\u0440": 2056,
  "\u2581\u043c\u0438": 2057,
  "\u2581ano": 2058,
  "ssa": 2059,
  "\u2581known": 2060,
  "\u2581preaching": 2061,
  "\u0636": 2062,
  "\u2581bwe": 2063,
  "\u2581kind": 2064,
  "\u2581blood": 2065,
  "\u062c": 2066,
  "val": 2067,
  "\u13c1": 2068,
  "gar": 2069,
  "\u2581lix": 2070,
  "\u0c15\u0c41": 2071,
  "\u13d3": 2072,
  "tsi": 2073,
  "\u2581\u0431\u0443": 2074,
  "\u2581od": 2075,
  "\u2581\u0c85": 2076,
  "\u2581country": 2077,
  "\u4e0d": 2078,
  "sen": 2079,
  "\u2581hear": 2080,
  "\u2581matter": 2081,
  "\u2581food": 2082,
  "\u092c": 2083,
  "\u2581nos": 2084,
  "ud": 2085,
  "\u04b3": 2086,
  "\u2581ob": 2087,
  "Z": 2088,
  "\u0928\u0947": 2089,
  "\u2581Him": 2090,
  "\u2581El": 2091,
  "\u2581\u043a\u043e": 2092,
  "\u0646\u0649\u06ad": 2093,
  "\u2581--": 2094,
  "\u2581att": 2095,
  "\u2581\u0431\u043e\u043b": 2096,
  "\u0cb5": 2097,
  "nzi": 2098,
  "\u2581Gu": 2099,
  "\u2581\u10d3\u10d0": 2100,
  "\u2581nd\u1ecb": 2101,
  "\u2581uku": 2102,
  "\u2581\u092a": 2103,
  "\u2581\u05d0": 2104,
  "let": 2105,
  "\u064a\u0627": 2106,
  "\u2581countries": 2107,
  "\u2581whole": 2108,
  "\u2581amin": 2109,
  "\u2581\u06a9\u06c1": 2110,
  "\u2581result": 2111,
  "\u2581\u0431\u0438\u0440": 2112,
  "\u2581hath": 2113,
  "pen": 2114,
  "nje": 2115,
  "\u2581\u0915\u0947": 2116,
  "\u2581enn": 2117,
  "\u012b": 2118,
  "\u0631\u06cc": 2119,
  "\u2581ze": 2120,
  "\u2581ngan": 2121,
  "\u2581thought": 2122,
  "\u2581\u0436\u0430": 2123,
  "\u122b": 2124,
  "\u03ae": 2125,
  "\u258128": 2126,
  "\u2581action": 2127,
  "\u10dd": 2128,
  "\u2581few": 2129,
  "\u0eb2": 2130,
  "ura": 2131,
  "\u2581start": 2132,
  "\u6709": 2133,
  "\u0f51": 2134,
  "\u2581Please": 2135,
  "\u2581since": 2136,
  "\u2581report": 2137,
  "\u2581indeed": 2138,
  "\u2581Iehova": 2139,
  "\u2581Ang": 2140,
  "\u2581\u0447": 2141,
  "\u2581\u0627\u0633": 2142,
  "\u09cb": 2143,
  "\u2581someone": 2144,
  "\u17c6": 2145,
  "\u2581\u0445\u0430": 2146,
  "op": 2147,
  "nja": 2148,
  "ray": 2149,
  "\u03b1": 2150,
  "\u2581\u043f\u0440\u0438": 2151,
  "gy": 2152,
  "\u0442\u04d9": 2153,
  "\u2581special": 2154,
  "era": 2155,
  "\u2581didn": 2156,
  "\u2581current": 2157,
  "\u0d41": 2158,
  "\u2581forth": 2159,
  "\u2581uma": 2160,
  "\u2581\u201d?": 2161,
  "\u091a": 2162,
  "\u2581using": 2163,
  "\u2581Those": 2164,
  "\u0baf": 2165,
  "\u2581continue": 2166,
  "tz": 2167,
  "\u2581qu": 2168,
  "sar": 2169,
  "\u2581\u0c05": 2170,
  "\u2581Even": 2171,
  "\u2581provide": 2172,
  "\u0430\u043c": 2173,
  "X": 2174,
  "\u258121": 2175,
  "\u2581zu": 2176,
  "\u0103": 2177,
  "t\u00e1": 2178,
  "\u2581\u00bb.": 2179,
  "\u2581receive": 2180,
  "ris": 2181,
  "ok": 2182,
  "\u6211": 2183,
  "\u2581received": 2184,
  "\u043a\u0435": 2185,
  "\u0d3f": 2186,
  "\u04d5\u043d": 2187,
  "\u2581From": 2188,
  "ari": 2189,
  "\u094d\u092f": 2190,
  "\u2581\u0639": 2191,
  "\u10db": 2192,
  "\u2581th": 2193,
  "\u043b\u04d9\u0440": 2194,
  "\u2581ur": 2195,
  "EN": 2196,
  "\u2581\u00e8": 2197,
  "\u2581King": 2198,
  "\u2581Adam": 2199,
  "\u17bb": 2200,
  "\u2581present": 2201,
  "\u2581\u0985": 2202,
  "\u0ac7": 2203,
  "\u0c2e\u0c41": 2204,
  "nta": 2205,
  "\u0a3e": 2206,
  "\u0b30": 2207,
  "ant": 2208,
  "\u2581\u1265": 2209,
  "\u2581language": 2210,
  "\u2581error": 2211,
  "\u2581\u064a": 2212,
  "\u2581hin": 2213,
  "\u03bd": 2214,
  "\u063a": 2215,
  "\u09be": 2216,
  "\u0430\u0434": 2217,
  "mes": 2218,
  "\u2581sons": 2219,
  "\u2581purpose": 2220,
  "bil": 2221,
  "\u0437\u044b": 2222,
  "\u2581\u0431\u0438": 2223,
  "\u2581\u12a3\u1265": 2224,
  "\u2581clear": 2225,
  "\u2581prayer": 2226,
  "\u258112:": 2227,
  "uri": 2228,
  "eth": 2229,
  "\u2581money": 2230,
  "\u2581\u12ed": 2231,
  "\u2581hearts": 2232,
  "\u094d": 2233,
  "\u2581j": 2234,
  "\u0928\u093e": 2235,
  "dar": 2236,
  "\u2581\u043d\u043e": 2237,
  "kha": 2238,
  "\u2581wu": 2239,
  "\u2581\u0438\u0437": 2240,
  "\u0644\u0649": 2241,
  "\u0e07": 2242,
  "\u2581yon": 2243,
  "\u0a3f": 2244,
  "up": 2245,
  "ces": 2246,
  "\u25813.": 2247,
  "\u2581\u0418\u0435\u0433\u043e\u0432\u0430": 2248,
  "\u03b9": 2249,
  "\u0410": 2250,
  "\u2581ng": 2251,
  "ker": 2252,
  "\u2581\u0440": 2253,
  "\u2581situation": 2254,
  "?\"": 2255,
  "\u2581min": 2256,
  ":%": 2257,
  "\u2581orang": 2258,
  "are": 2259,
  "\u2581Per": 2260,
  "sz": 2261,
  "\u0f53\u0f0b": 2262,
  "\u0cc7": 2263,
  "use": 2264,
  "\u2581air": 2265,
  "\u0b28": 2266,
  "\u2581See": 2267,
  "\".": 2268,
  "\u2581unit": 2269,
  "mbu": 2270,
  "lah": 2271,
  "\u0434\u0438\u0440": 2272,
  "\u0631\u0647": 2273,
  "\u2581Mr": 2274,
  "\u0578": 2275,
  "tis": 2276,
  "cht": 2277,
  "\u2581joy": 2278,
  "nto": 2279,
  "\u2581questions": 2280,
  "\u2581ken": 2281,
  "\u0dba": 2282,
  "\u2581second": 2283,
  "\u2581key": 2284,
  "\u0648\u06ba": 2285,
  "\u0d30": 2286,
  "mak": 2287,
  "\u2581toward": 2288,
  "\u2581command": 2289,
  "\u0b95\u0bcd\u0b95": 2290,
  "\u2581via": 2291,
  "stra": 2292,
  "\u2581program": 2293,
  "ila": 2294,
  "dde": 2295,
  "\u2581ngo": 2296,
  "\u0430\u043d\u0434": 2297,
  "\u2581san": 2298,
  "\u2581ako": 2299,
  "\u06bb": 2300,
  "\u0442\u0443": 2301,
  "pro": 2302,
  "\u2581created": 2303,
  "\u2581question": 2304,
  "mat": 2305,
  "\u0446\u0438": 2306,
  "\u2581mpe": 2307,
  "\u0646\u0647": 2308,
  "\u2581kag": 2309,
  "\u2581Because": 2310,
  "\u2581Yeah": 2311,
  "\u09c0": 2312,
  "l\u00f3": 2313,
  "l\u00ed": 2314,
  "\u2581tou": 2315,
  "20": 2316,
  "\u2581vai": 2317,
  "gt": 2318,
  "mer": 2319,
  "\u061f": 2320,
  "\u2581Psalm": 2321,
  "\u2581four": 2322,
  "\u2581Whether": 2323,
  "iga": 2324,
  "\u2581Man": 2325,
  "ns": 2326,
  "\u2581\u09aa": 2327,
  "bli": 2328,
  "for": 2329,
  "wana": 2330,
  "\u2581sara": 2331,
  "\u2581doo": 2332,
  "\u0d3e": 2333,
  "\u13a8": 2334,
  "\u2581bad": 2335,
  "\u2581Ru": 2336,
  "\u09b6": 2337,
  "7": 2338,
  "r\u00ed": 2339,
  "\u05ea": 2340,
  "nji": 2341,
  "llu": 2342,
  "\u0a24": 2343,
  "\u0eb0": 2344,
  "\u2581ten": 2345,
  "\u2581however": 2346,
  "\u2581kina": 2347,
  "\u17c1": 2348,
  "\u4e00": 2349,
  "\u2581\u00e0w\u1ecdn": 2350,
  "10": 2351,
  "\u0bae\u0bcd": 2352,
  "\u2581\u00ed": 2353,
  "\u258127": 2354,
  "\u2581works": 2355,
  "\u0431\u0438": 2356,
  "\u2581\u0939\u0948": 2357,
  "num": 2358,
  "\u2581swi": 2359,
  "\u2581knew": 2360,
  "\u2581t\u00e2": 2361,
  "\u05d6": 2362,
  "\u2581righteous": 2363,
  "\u0438\u0431": 2364,
  "\u2581\u1794": 2365,
  "\u2581\u12a5": 2366,
  "\u2581anything": 2367,
  "\u05f2": 2368,
  "\u044d\u044d": 2369,
  "\u0f62": 2370,
  "\u2581hands": 2371,
  "\u05d3": 2372,
  "thu": 2373,
  "\u0ba4\u0bc1": 2374,
  "\u0438\u0442": 2375,
  "ity": 2376,
  "\u0c2f": 2377,
  "\u05e4": 2378,
  "\u03c6": 2379,
  "\u1ee5": 2380,
  "\u2581kana": 2381,
  "sk": 2382,
  "\u2581\u041f\u0430": 2383,
  "\u2581experience": 2384,
  "\u2581mate": 2385,
  "\u2581\u06a9\u0627": 2386,
  "\u2581leave": 2387,
  "\u2581Iesu": 2388,
  "\u2581\u4f60": 2389,
  "\u2581local": 2390,
  "rum": 2391,
  "rt": 2392,
  "\u2581\u043a\u0443": 2393,
  "\u0c30\u0c4d": 2394,
  "\u0e01": 2395,
  "\u2581needed": 2396,
  "\u2581jun": 2397,
  "anna": 2398,
  "8": 2399,
  "ac": 2400,
  "\u2581koe": 2401,
  "\u2581hard": 2402,
  "\u2581usa": 2403,
  "lay": 2404,
  "\u2581please": 2405,
  "\u2581isi": 2406,
  "\u258129": 2407,
  "\u2581\u043c\u0443": 2408,
  "\u2581Job": 2409,
  "\u0431\u043e": 2410,
  "\u05d7": 2411,
  "\u2581\u0633": 2412,
  "\u0ea7": 2413,
  "\u2581neither": 2414,
  "\u2581Europe": 2415,
  "my": 2416,
  "\u2581gin": 2417,
  "\u06cc\u062f": 2418,
  "dos": 2419,
  "\u2581\u0ec0\u0eae\u0ebb\u0eb2": 2420,
  "\u2581\u0441\u0438": 2421,
  "\u0438\u044f": 2422,
  "\u2581Yet": 2423,
  "\u2581zot": 2424,
  "\u2581line": 2425,
  "\u2581problem": 2426,
  "\u04d1\u043d": 2427,
  "\u2581Yesu": 2428,
  "\u092f": 2429,
  "\u00fb": 2430,
  "\u0aa8": 2431,
  "\u4f60": 2432,
  "\u2581members": 2433,
  "\u2581File": 2434,
  "\u0a15": 2435,
  "lang": 2436,
  "\u043e\u0442": 2437,
  "r\u00eb": 2438,
  "\u2581mankind": 2439,
  "\u05db": 2440,
  "\u2581\u0442\u0443": 2441,
  "bili": 2442,
  "\u2581\u0646\u06d2": 2443,
  "\u2581fil": 2444,
  "\u10ee": 2445,
  "\u2581yourself": 2446,
  "\u2581heavens": 2447,
  "\u2581problems": 2448,
  "\u258123": 2449,
  "\u0ab2": 2450,
  "\u2581Select": 2451,
  "iki": 2452,
  "\u2581diri": 2453,
  "\u2581lava": 2454,
  "t\u00eb": 2455,
  "\u2581elders": 2456,
  "\u2581Union": 2457,
  "\u2581Committee": 2458,
  "\u2581Of": 2459,
  "\u0b3f": 2460,
  "\u0438\u0442\u0435": 2461,
  "\u0633\u0647": 2462,
  "\u0bb0": 2463,
  "\u2581talk": 2464,
  "\u2581ina": 2465,
  "ay": 2466,
  "\u062a\u0627\u0646": 2467,
  "\u2581inter": 2468,
  "\u25810": 2469,
  "ntu": 2470,
  "ui": 2471,
  "\u2581bon": 2472,
  "\u2581application": 2473,
  "\u2581humans": 2474,
  "\u1e25": 2475,
  "\u2581\u0431\u0430\u0440": 2476,
  "\u2581try": 2477,
  "\u2581happy": 2478,
  "\u2581\u09b8": 2479,
  "(_": 2480,
  "s\u00ed": 2481,
  "tum": 2482,
  "\u2581answer": 2483,
  "\u2581Cha": 2484,
  "\u2581move": 2485,
  "pre": 2486,
  "\u2581marriage": 2487,
  "\u0e14": 2488,
  "\u0dbd": 2489,
  "\u17bc": 2490,
  "mon": 2491,
  "\u043b\u044f": 2492,
  "\u06af\u0647": 2493,
  "\u0148": 2494,
  "\u133d": 2495,
  "bh": 2496,
  "\u06c6": 2497,
  "\u2581wax": 2498,
  "ue": 2499,
  "\u2581husband": 2500,
  "\u2581\u12a8": 2501,
  "\u2581\u0431\u043e": 2502,
  "\u2581Matthew": 2503,
  "\u2581kwe": 2504,
  "\u2581side": 2505,
  "\u2581\u306b": 2506,
  "nte": 2507,
  "\u2581eat": 2508,
  "\u2581return": 2509,
  "\u2581\u0c95": 2510,
  "\u2581\u067e\u0647": 2511,
  "\u1037": 2512,
  "\u0bc1": 2513,
  "\u2581coming": 2514,
  "\u65e5": 2515,
  "\u05e7": 2516,
  "\u1320": 2517,
  "\u0627\u0631": 2518,
  "var": 2519,
  "\u0438\u0448": 2520,
  "\u2581loving": 2521,
  "\u0917": 2522,
  "l\u00e8": 2523,
  "\u2581needs": 2524,
  "\u062a\u06cc": 2525,
  "\u2581fellow": 2526,
  "\u1ecb": 2527,
  "\u03b8": 2528,
  "\u2581pas": 2529,
  "\u2581plan": 2530,
  "\u12f3": 2531,
  "\u05d5": 2532,
  "\u2581fine": 2533,
  "ram": 2534,
  "\u2581vol": 2535,
  "\u2581State": 2536,
  "lwa": 2537,
  "\u2581tagata": 2538,
  "\u2581Com": 2539,
  "\u0441\u044b": 2540,
  "\u043b\u0443": 2541,
  "\u0e22": 2542,
  "\u258126": 2543,
  "\u258110:": 2544,
  "\u0ac0": 2545,
  "dda": 2546,
  "bel": 2547,
  "\u2581share": 2548,
  "\u17b6": 2549,
  "\u2581Don": 2550,
  "\u2581friends": 2551,
  "ist": 2552,
  "\u1263": 2553,
  "\u258122": 2554,
  "\u2581EU": 2555,
  "can": 2556,
  "\u0c32\u0c41": 2557,
  "\u25815.": 2558,
  "\u2581Where": 2559,
  "res": 2560,
  "\u091c": 2561,
  "\u2581ndo": 2562,
  "\u0ba4\u0bcd\u0ba4": 2563,
  "\u2581Men": 2564,
  "\u2581whaka": 2565,
  "\u2581\u0627\u0648": 2566,
  "\u2581\u0430\u0437": 2567,
  "\u2581\u0422": 2568,
  "\u2581wicked": 2569,
  "\u2581Jews": 2570,
  "\u0d35": 2571,
  "\u2581Many": 2572,
  "\u2581Day": 2573,
  "kho": 2574,
  "\u2581ari": 2575,
  "eg": 2576,
  "\u2581century": 2577,
  "oc": 2578,
  "uk": 2579,
  "\u0438\u0437": 2580,
  "\u2581nda": 2581,
  "\u2581save": 2582,
  "\u2581comes": 2583,
  "\u2581tala": 2584,
  "\u0ccb": 2585,
  "\u2581wisdom": 2586,
  "\u2581kg": 2587,
  "9": 2588,
  "\u12d5": 2589,
  "tak": 2590,
  "ex": 2591,
  "\u00e5": 2592,
  "\u12ab": 2593,
  "bre": 2594,
  "Q": 2595,
  "\u2581Say": 2596,
  "\u0bb2": 2597,
  "\u0bae": 2598,
  "\u2581Yo": 2599,
  "\u2581tino": 2600,
  "\u6708": 2601,
  "\u2581ah": 2602,
  "\u2581gonna": 2603,
  "\u2581gra": 2604,
  "\u2581above": 2605,
  "\u2581Mar": 2606,
  "\u2581helped": 2607,
  "aba": 2608,
  "van": 2609,
  "sy": 2610,
  "ela": 2611,
  "\u2581qa": 2612,
  "\u2581small": 2613,
  "\u2581b\u00e1": 2614,
  "\u2581nations": 2615,
  "\u0e87": 2616,
  "\u134d": 2617,
  "\u062f\u0649\u0646": 2618,
  "\u2581ati": 2619,
  "\u2581\u1019": 2620,
  "\u2581sta": 2621,
  "\u2581\u0438\u043d": 2622,
  "\u0f51\u0f0b": 2623,
  "\u2581counsel": 2624,
  "ere": 2625,
  "\u00e1n": 2626,
  "\u0633\u0627": 2627,
  "\u2581s\u00ed": 2628,
  "\u1784": 2629,
  "\u2581real": 2630,
  "\u00f6": 2631,
  "bat": 2632,
  "\u2581\u092a\u094d\u0930": 2633,
  "\u0bb0\u0bcd": 2634,
  "\u2581t\u00e4": 2635,
  "\u2581ph": 2636,
  "\u2581strong": 2637,
  "\u011f": 2638,
  "\u2581<": 2639,
  "\u2581dat": 2640,
  "ent": 2641,
  "\u2581Scriptures": 2642,
  "\u1270": 2643,
  "\u1e63": 2644,
  "\u2581fire": 2645,
  "\u0fb1": 2646,
  "\u2581area": 2647,
  "\u2581document": 2648,
  "\u1019": 2649,
  "ano": 2650,
  "\u063a\u0627": 2651,
  "phe": 2652,
  "\u2581kitai": 2653,
  "ale": 2654,
  "ple": 2655,
  "\u1233": 2656,
  "nar": 2657,
  "put": 2658,
  "\u258111:": 2659,
  "\u2581Kon": 2660,
  "\u0e94": 2661,
  "\u2581trust": 2662,
  "\u2581fer": 2663,
  "mana": 2664,
  "og": 2665,
  "\u043d\u04d1": 2666,
  "\u0ba4": 2667,
  "\u044b\u043f": 2668,
  "\u2581period": 2669,
  "\u0e27": 2670,
  "\u2581\u06a9\u0627\u0646": 2671,
  "\u2581\u06c1\u06cc\u06ba": 2672,
  "lag": 2673,
  "\u12f0": 2674,
  "\u0435\u0440": 2675,
  "\u0525": 2676,
  "\u2581wanted": 2677,
  "\u2581toe": 2678,
  "\u2581meetings": 2679,
  "nna": 2680,
  "anga": 2681,
  "\u0458": 2682,
  "\u2581Ju": 2683,
  "19": 2684,
  "ani": 2685,
  "ish": 2686,
  "hon": 2687,
  "\u0565\u0580": 2688,
  "\u2581aki": 2689,
  "\u306e": 2690,
  "\u2581\u06cb\u06d5": 2691,
  "\u2581\u043d\u0438": 2692,
  "\u2581yeke": 2693,
  "\u2581benefit": 2694,
  "\u03bf": 2695,
  "\u0e95": 2696,
  "\u00f3n": 2697,
  "\u2581field": 2698,
  "\u2581lives": 2699,
  "\u2581\u041f": 2700,
  "\u0ec8": 2701,
  "\u06d5\u062a": 2702,
  "\u2581\u1000\u102d\u102f": 2703,
  "\u012f": 2704,
  "\u0c15": 2705,
  "\u0d9a": 2706,
  "mis": 2707,
  "\u2581remember": 2708,
  "\u2581avoid": 2709,
  "\u2581everything": 2710,
  "\u0e25": 2711,
  "\u0a4b": 2712,
  "\u0c24": 2713,
  "\u2581las": 2714,
  "\u2581\u0baa": 2715,
  "\u2581taking": 2716,
  "\u0418": 2717,
  "\u0c95": 2718,
  "\u2581Es": 2719,
  "dia": 2720,
  "\u2581mwa": 2721,
  "\u2581ihe": 2722,
  "\u0db1\u0dca": 2723,
  "\u0daf": 2724,
  "\u2581Thus": 2725,
  "keun": 2726,
  "\u121b": 2727,
  "\u1325": 2728,
  "type": 2729,
  "\u2581\u043a\u0435": 2730,
  "\\": 2731,
  "\u1780": 2732,
  "format": 2733,
  "ngaahi": 2734,
  "\u127d": 2735,
  "\u25813,": 2736,
  "Other": 2737,
  "\u2581\u0627\u0633\u062a": 2738,
  "ilo": 2739,
  "\u2581social": 2740,
  "\u2581ourselves": 2741,
  "\u2581desire": 2742,
  "\u0d4b": 2743,
  "\u0430\u043b": 2744,
  "\u2581certainly": 2745,
  "\u2581ej": 2746,
  "yen": 2747,
  "\u178f": 2748,
  "\u1205": 2749,
  "nak": 2750,
  "\u2581\u0a38": 2751,
  "\u2581aan": 2752,
  "\u2581res": 2753,
  "\u13b8": 2754,
  "\u2581pay": 2755,
  "\u2581May": 2756,
  "\u2581surely": 2757,
  "\u2581mit": 2758,
  "hr": 2759,
  "\u0623": 2760,
  "con": 2761,
  "\u2581makes": 2762,
  "\u2581\u0570": 2763,
  "\u2581\u041a": 2764,
  "\u03b7": 2765,
  "\u2581mis": 2766,
  "\u2581till": 2767,
  "\u0441\u0435\u043c": 2768,
  "\u1272": 2769,
  "\u04ad\u0430": 2770,
  "\u0493": 2771,
  "\u0cae": 2772,
  "\u2581\u062e": 2773,
  "ende": 2774,
  "\u06be\u064a": 2775,
  "\u09f0\u09cd": 2776,
  "\u2581whose": 2777,
  "cer": 2778,
  "\u2581\u043c": 2779,
  "tut": 2780,
  "\u2581Hu": 2781,
  "\u0f62\u0f0b": 2782,
  "\u05d2": 2783,
  "\u2581health": 2784,
  "jen": 2785,
  "\u2581\u12dd": 2786,
  "isa": 2787,
  "\u0648\u0627\u0646\u0647": 2788,
  "\u13cd\u13d7": 2789,
  "tua": 2790,
  "\u0445\u0430": 2791,
  "\u04d5\u0439": 2792,
  "\u03c1": 2793,
  "\u2581head": 2794,
  "\u0921": 2795,
  "vis": 2796,
  "\u258140": 2797,
  "ft": 2798,
  "\u2581Organiser": 2799,
  "lok": 2800,
  "t\u0101": 2801,
  "nni": 2802,
  "\u0e81": 2803,
  "\u0433\u0438": 2804,
  "ora": 2805,
  "\u2581\u1270": 2806,
  "\u03c2": 2807,
  "\u2581lead": 2808,
  "\u2581anointed": 2809,
  "\u2581\u0643": 2810,
  "\u0e99": 2811,
  "ara": 2812,
  "\u043b\u0456": 2813,
  "met": 2814,
  "\u0434\u0435\u0440": 2815,
  "\u2581near": 2816,
  "\u1260": 2817,
  "\u1230": 2818,
  "\u0445\u0438": 2819,
  "\u2581f\u00e8": 2820,
  "\u0432\u0435": 2821,
  "\u103a": 2822,
  "tura": 2823,
  "ens": 2824,
  "\u2581Fe": 2825,
  "\u06cc\u0627": 2826,
  "\u2581Chi": 2827,
  "\u05d0": 2828,
  "\u2581\u062d": 2829,
  "\u00e1l": 2830,
  "\u2581thus": 2831,
  "\u2581tar": 2832,
  "\u043a\u04d9": 2833,
  "\u03b5\u03b9": 2834,
  "\u0ca1": 2835,
  "\u00ec": 2836,
  "\u2581sp": 2837,
  "\u2581\u0432\u043e": 2838,
  "\u0d15": 2839,
  "set": 2840,
  "\u0abf": 2841,
  "\u0dd0": 2842,
  "\u2581THE": 2843,
  "ich": 2844,
  "io": 2845,
  "mpi": 2846,
  "\u2581\u0627\u0644\u0623": 2847,
  "\u064a\u06d5\u0646\u0649": 2848,
  "nin": 2849,
  "\u06d5": 2850,
  "\u2581yan": 2851,
  "\u2581pan": 2852,
  "\u0dda": 2853,
  "iz": 2854,
  "\u2581\u1e63e": 2855,
  "\u2581\u0434\u0435": 2856,
  "\u2581aika": 2857,
  "\u2581Wi": 2858,
  "\u2581KDE": 2859,
  "\u2581d\u00e9": 2860,
  "\u2581decision": 2861,
  "\u2581soon": 2862,
  "\u2581remain": 2863,
  "Ma": 2864,
  "\u13c9": 2865,
  "\u25812,": 2866,
  "\u2581allow": 2867,
  "dat": 2868,
  "\u2581Therefore": 2869,
  "\u0a71": 2870,
  "mit": 2871,
  "\u2581latou": 2872,
  "\u2581mas": 2873,
  "\u1010": 2874,
  "\u0930\u094d": 2875,
  "\u2581\u0986": 2876,
  "qi": 2877,
  "\u2581een": 2878,
  "t\u00ed": 2879,
  "\u0a38": 2880,
  "sho": 2881,
  "\u2581\u0432\u0438": 2882,
  "\u2581self": 2883,
  "\u2581\u042d": 2884,
  "\u2581r\u00e9": 2885,
  "\u09b8": 2886,
  "\u03ba": 2887,
  "\u0561\u056f": 2888,
  "\u2581Pu": 2889,
  "\u2581based": 2890,
  "tel": 2891,
  "\u0440\u0442": 2892,
  "war": 2893,
  "mar": 2894,
  "\u258133": 2895,
  "nas": 2896,
  "\u2581meeting": 2897,
  "\u2581activities": 2898,
  "\u2581authority": 2899,
  "das": 2900,
  "\u2581vis": 2901,
  "\u0bbe": 2902,
  "\u2581Move": 2903,
  "\u2581eller": 2904,
  "run": 2905,
  "\u1785": 2906,
  "\u2581Canno": 2907,
  "\u2581\u0433\u043e": 2908,
  "\u2581\u0430\u043b": 2909,
  "\u043b\u04d9": 2910,
  "\u2581az": 2911,
  "\u13ad": 2912,
  "\u2581happened": 2913,
  "\u2581Daniel": 2914,
  "\u2581age": 2915,
  "\u2581relationship": 2916,
  "\u014d": 2917,
  "ord": 2918,
  "\u2581\u05dc": 2919,
  "\u2581felt": 2920,
  "gra": 2921,
  "City": 2922,
  "\u062f\u0649": 2923,
  "\u0c97": 2924,
  "\u258110.": 2925,
  "\u062c\u0627": 2926,
  "kka": 2927,
  "mata": 2928,
  "lli": 2929,
  "\u2581Pre": 2930,
  "\u2581\u0914\u0930": 2931,
  "\u25818.": 2932,
  "pat": 2933,
  "\u0624": 2934,
  "\u13aa": 2935,
  "kk": 2936,
  "\u2581national": 2937,
  "ej": 2938,
  "\u0e1a": 2939,
  "taki": 2940,
  "com": 2941,
  "\u0aa4": 2942,
  "\u2581development": 2943,
  "\u2581create": 2944,
  "ness": 2945,
  "\u0456": 2946,
  "\u2581tak": 2947,
  "\u258113:": 2948,
  "\u2581wise": 2949,
  "J": 2950,
  "bwa": 2951,
  "\u0441\u044f": 2952,
  "IN": 2953,
  "\u00e7a": 2954,
  "iza": 2955,
  "\u2581written": 2956,
  "\u2581Add": 2957,
  "\u2581Ci": 2958,
  "\u0db1": 2959,
  "\u258150": 2960,
  "\u2581further": 2961,
  "\u2581\u17d4": 2962,
  "sel": 2963,
  "\u2581\u06fe": 2964,
  "\u2581soul": 2965,
  "mus": 2966,
  "\u25817:": 2967,
  "\u2581\u00e5": 2968,
  "\u2581baptized": 2969,
  "mm": 2970,
  "\u2581\u0445\u043e": 2971,
  "\u0d47": 2972,
  "l\u00e4": 2973,
  "\u0cc2": 2974,
  "jar": 2975,
  "\u2581\u0e9e\u0eb0": 2976,
  "\u09b0\u09cd": 2977,
  "\u2581\u0622\u0646": 2978,
  "\u2581ake": 2979,
  "\u2581died": 2980,
  "\u2581level": 2981,
  "\u1215": 2982,
  "\u2581\u04b3\u0430\u043c": 2983,
  "\u2581learned": 2984,
  "\u0626": 2985,
  "ld": 2986,
  "\u2581once": 2987,
  "\u0d15\u0d4d\u0d15": 2988,
  "\u2581pra": 2989,
  "ksi": 2990,
  "\u1245": 2991,
  "\u2581\u121d": 2992,
  "bha": 2993,
  "\u016b": 2994,
  "\",": 2995,
  "12": 2996,
  "\u0445\u04d9": 2997,
  "\u05dd": 2998,
  "\u2581\u13d7": 2999,
  "\u25817.": 3000,
  "\u0565": 3001,
  "\u2581Am": 3002,
  "d\u0259": 3003,
  "\u2581\u06af": 3004,
  "pri": 3005,
  "stu": 3006,
  "para": 3007,
  "\u056b\u0576": 3008,
  "\u0bc1\u0bae\u0bcd": 3009,
  "ata": 3010,
  "\u2581aga": 3011,
  "\u13f3": 3012,
  "\u2581Joseph": 3013,
  "\u03c9": 3014,
  "\u258132": 3015,
  "\u2581position": 3016,
  "\u2581nen": 3017,
  "\u2581school": 3018,
  "\u2581sur": 3019,
  "tse": 3020,
  "ung": 3021,
  "\u2581iki": 3022,
  "gin": 3023,
  "\u2581bil": 3024,
  "\u12ad": 3025,
  "\u2581skal": 3026,
  "\u0c2a": 3027,
  "\u2581\u0412": 3028,
  "\u094d\u092f\u093e": 3029,
  "\u2581Fo": 3030,
  "dd": 3031,
  "\u2581international": 3032,
  "\u2581ear": 3033,
  "\u2581\u043e\u0431": 3034,
  "\u5230": 3035,
  "\u2581World": 3036,
  "\u2581m\u00e9": 3037,
  "\u062a\u0647": 3038,
  "\u2581five": 3039,
  "\u2581necessary": 3040,
  "\u2581sija": 3041,
  "\u2581\u0442\u0438": 3042,
  "\u2581temple": 3043,
  "\u2581working": 3044,
  "\u2581ete": 3045,
  "tso": 3046,
  "syon": 3047,
  "\u2581enough": 3048,
  "sse": 3049,
  "org": 3050,
  "\u2581\u044d": 3051,
  "zh": 3052,
  "ses": 3053,
  "\u2581(%": 3054,
  "\u2581glory": 3055,
  "mal": 3056,
  "\u0627\u0641": 3057,
  "\u2581\u0648\u06c1": 3058,
  "c\u00df": 3059,
  "\u0447\u044b": 3060,
  "\u3044": 3061,
  "\u2581uz": 3062,
  "agh": 3063,
  "gg": 3064,
  "\u2581Come": 3065,
  "\u2581along": 3066,
  "zin": 3067,
  "sko": 3068,
  "\u00e7\u00e3o": 3069,
  "\u2581Indeed": 3070,
  "\u2581sub": 3071,
  "\u0638": 3072,
  "din": 3073,
  "dwa": 3074,
  "\u0d9a\u0dca": 3075,
  "\u2581pray": 3076,
  "\u2581\u09ac": 3077,
  "\u2581ab": 3078,
  "inn": 3079,
  "ide": 3080,
  "\u2581pla": 3081,
  "ito": 3082,
  "\u0434\u044b\u0440": 3083,
  "lem": 3084,
  "\u2581Wo": 3085,
  "\u0ca8\u0cc1": 3086,
  "\u0627\u0626": 3087,
  "\u2581\u0915\u0930": 3088,
  "\u2581kei": 3089,
  "\u0e9a": 3090,
  "\u2581kaj": 3091,
  "\u0435\u0439": 3092,
  "wer": 3093,
  "\u1031": 3094,
  "tika": 3095,
  "\u12a3": 3096,
  "\u0d24": 3097,
  "\u043c\u0430\u043d": 3098,
  "\u05d1": 3099,
  "\u2581fra": 3100,
  "zer": 3101,
  "\u2581\u092c": 3102,
  "\u2581\u056f": 3103,
  "\u2581nke": 3104,
  "of": 3105,
  "\u0c3e": 3106,
  "ili": 3107,
  "\u2581enter": 3108,
  "\u25816.": 3109,
  "ente": 3110,
  "vel": 3111,
  "\u2581dhe": 3112,
  "kulu": 3113,
  "ati": 3114,
  "\u017ei": 3115,
  "\u057a": 3116,
  "\u2581tai": 3117,
  "\u0ec9": 3118,
  "\u2581act": 3119,
  "\u2581Just": 3120,
  "\u2581xe": 3121,
  "\u2581\u0ec0": 3122,
  "yl": 3123,
  "\u00e9r": 3124,
  "mpa": 3125,
  "\u2581Israelites": 3126,
  "\u2581apply": 3127,
  "\u2581Isa": 3128,
  "\u2581\u00f3": 3129,
  "\u044b\u0437": 3130,
  "cion": 3131,
  "\u0430\u0445": 3132,
  "\u2581\u0648\u0627\u0644": 3133,
  "\u2581giving": 3134,
  "tau": 3135,
  "\u2581least": 3136,
  "\u043c\u04d5": 3137,
  "\u2581Biblia": 3138,
  "You": 3139,
  "r\u00f3": 3140,
  "\u2581\u00e7": 3141,
  "\u2581\u0622\u06be\u0646": 3142,
  "\u2581\u179f": 3143,
  "\u0923": 3144,
  "uli": 3145,
  "\u2581early": 3146,
  "\u10e5": 3147,
  "get": 3148,
  "\u2581regard": 3149,
  "\u0c41": 3150,
  "\u0169": 3151,
  "\u2581Bar": 3152,
  "\u2581gives": 3153,
  "\u0646\u062f\u0627": 3154,
  "\u10ea": 3155,
  "\u0434\u04d9": 3156,
  "\u0a3e\u0a02": 3157,
  "\u2581label": 3158,
  "ure": 3159,
  "mme": 3160,
  "\u0ac1": 3161,
  "\u2581difficult": 3162,
  "\u2581measures": 3163,
  "t\u00f3": 3164,
  "\u2581\u306f": 3165,
  "\u1eb9": 3166,
  "\u2581\u05de": 3167,
  "\u2581stand": 3168,
  "sala": 3169,
  "\u2581dos": 3170,
  "\u0645\u0647": 3171,
  "\u043b\u044b\u043a": 3172,
  "\u0930\u093e": 3173,
  "\u2581\u0cae": 3174,
  "\u2581lie": 3175,
  "tri": 3176,
  "\u0631\u0649": 3177,
  "\u2581\u06c1\u0648": 3178,
  "yr": 3179,
  "\u2581Par": 3180,
  "0": 3181,
  "mento": 3182,
  "nk": 3183,
  "\u2581voor": 3184,
  "d\u00e9": 3185,
  "\u0f63\u0f0b": 3186,
  "\u0e2a": 3187,
  "oon": 3188,
  "\u2581\u0578\u0580": 3189,
  "\u12c8": 3190,
  "\u2581GNOME": 3191,
  "\u2581particular": 3192,
  "\u2581\u101e": 3193,
  "port": 3194,
  "ssi": 3195,
  "cz": 3196,
  "\u2581\u0645\u0627": 3197,
  "\u2581dagiti": 3198,
  "lek": 3199,
  "\u2581Ch": 3200,
  "\u0578\u0582": 3201,
  "\u2581mercy": 3202,
  "\u2581anyone": 3203,
  "\u2581knows": 3204,
  "\u2581Ve": 3205,
  "\u2581form": 3206,
  "\u2581ezi": 3207,
  "\u0561": 3208,
  "\u00f8": 3209,
  "\u2581\u062e\u0648\u062f": 3210,
  "\u0565\u056c": 3211,
  "\u2581seek": 3212,
  "\u10db\u10d0": 3213,
  "\u2581von": 3214,
  "\u258112.": 3215,
  "\u2581\u0441\u0443": 3216,
  ".\u201d": 3217,
  "11": 3218,
  "\u2581temporary": 3219,
  "\u2581\u1ecc": 3220,
  "\u2581reading": 3221,
  "\u0446\u044c": 3222,
  "\u2581\u0111": 3223,
  "\u2581\u0443\u043b": 3224,
  "\u0434\u0430\u0440": 3225,
  "rwa": 3226,
  "\u2581concerning": 3227,
  "\u2581sea": 3228,
  "\u2581greater": 3229,
  "\u13e5": 3230,
  "h\u00e9": 3231,
  "\u00fan": 3232,
  "kom": 3233,
  "\u2581prophet": 3234,
  "\u0b95": 3235,
  "\u0eb5": 3236,
  "\u2581\u0633\u0647": 3237,
  "\u2581\u0ec3\u0eab\u0ec9": 3238,
  "\u2581lea": 3239,
  "\u03b5": 3240,
  "asa": 3241,
  "\u2581n\u00f3": 3242,
  "\u0444\u0438": 3243,
  "\u2581righteousness": 3244,
  "\u25819.": 3245,
  "\u2581state": 3246,
  "leg": 3247,
  "\u0493\u044b": 3248,
  "she": 3249,
  "\u2581teaching": 3250,
  "\u2581material": 3251,
  "zwa": 3252,
  "\u2581\u0b95": 3253,
  "\u2581except": 3254,
  "\u0449\u0435": 3255,
  "\u2581General": 3256,
  "\u2581yu": 3257,
  "\u2581\u041d\u0435": 3258,
  "\u0646\u062f\u0648": 3259,
  "stan": 3260,
  "\u0935\u093e": 3261,
  "\u2581address": 3262,
  "\u057f": 3263,
  "\u2581tre": 3264,
  "\u2581\u041a\u0430": 3265,
  "\u2581ay": 3266,
  "\u0dad\u0dca": 3267,
  "zen": 3268,
  "\u2581\u0424": 3269,
  "\u2581promise": 3270,
  "ib": 3271,
  "\u2581\u0a39\u0a48": 3272,
  "mber": 3273,
  "\u2581enjoy": 3274,
  "\u2581effect": 3275,
  "\u05e9": 3276,
  "tie": 3277,
  "\u03af": 3278,
  "\u2581Isaiah": 3279,
  "\u2581Solomon": 3280,
  "\u2581\u2014\u2060": 3281,
  "\u2581sun": 3282,
  "\u043d\u044f": 3283,
  "\u2581accept": 3284,
  "teri": 3285,
  "ngan": 3286,
  "dik": 3287,
  "\u2581lost": 3288,
  "\u1e5b": 3289,
  "\u2581loto": 3290,
  "\u2581\u012f": 3291,
  "\u2581\u0413": 3292,
  "\u2581nation": 3293,
  "\u0e8d": 3294,
  "\u2581\u13a2": 3295,
  "ow": 3296,
  "\u2581common": 3297,
  "\u0627\u0645": 3298,
  "\u2581dua": 3299,
  "\u2581especially": 3300,
  "\u2581\u13af\u13a0": 3301,
  "\u2581Die": 3302,
  "\u2581angels": 3303,
  "ert": 3304,
  "ele": 3305,
  "\u4e0a": 3306,
  "\u2581alone": 3307,
  "\u2581\u00een": 3308,
  "\u2581ali": 3309,
  "jer": 3310,
  "\u04b3\u0430": 3311,
  "\u0b15": 3312,
  "int": 3313,
  "\u2581past": 3314,
  "\u2581menu": 3315,
  "\u2581\u05d1": 3316,
  "rea": 3317,
  "\u0432\u0435\u0440": 3318,
  "\u2581sem": 3319,
  "\u0a2e": 3320,
  "\u2581teach": 3321,
  "\u2581Did": 3322,
  "hla": 3323,
  "\u13ef": 3324,
  "\u2581\u0633\u0648": 3325,
  "\u13cf": 3326,
  "\u0caf": 3327,
  "ff": 3328,
  "\u0e15": 3329,
  "sten": 3330,
  "\u2581thinking": 3331,
  "\u2581believers": 3332,
  "\u2581item": 3333,
  "wen": 3334,
  "\u2581third": 3335,
  "\u0ccd\u0caf": 3336,
  "\u2581changes": 3337,
  "\u2581\u04b3\u0430": 3338,
  "\u2581\u0626\u06d5": 3339,
  "ley": 3340,
  "\u2581attention": 3341,
  "ij": 3342,
  "fan": 3343,
  "\u2581months": 3344,
  "net": 3345,
  "\u2581\u0411": 3346,
  "hy": 3347,
  "\u2581seven": 3348,
  "dz": 3349,
  "\u2581\u0448\u0430": 3350,
  "\u2581contact": 3351,
  "day": 3352,
  "l\u0259": 3353,
  "\u2581\u00f1an": 3354,
  "\u2581Use": 3355,
  "\u2581voice": 3356,
  "\u2581door": 3357,
  "\u2581shi": 3358,
  "\u2581akan": 3359,
  "\u2581Saul": 3360,
  "\u2581>": 3361,
  "\u2581\u0412\u0430": 3362,
  "\u178e": 3363,
  "\u2581send": 3364,
  "\u2581100": 3365,
  "\u2581\u3092": 3366,
  "ez": 3367,
  "\u04bb": 3368,
  "\u2581OF": 3369,
  "\u2581kingdom": 3370,
  "\u0a95": 3371,
  "\u2581kindness": 3372,
  "\u0440\u0430\u043d": 3373,
  "\u09b9": 3374,
  "\u2581kala": 3375,
  "\u0aae": 3376,
  "\u2581kae": 3377,
  "\u2581eb": 3378,
  "\u2581pie": 3379,
  "\u05d5\u05ea": 3380,
  "\u0dd9": 3381,
  "\u2581\u062a\u0645": 3382,
  "\u0451": 3383,
  "\u10d7": 3384,
  "\u2581\u0641": 3385,
  "\u2581tautolu": 3386,
  "\u25818:": 3387,
  "\u04e3": 3388,
  "\u2581sen": 3389,
  "\u2581nti": 3390,
  "\u043d\u0435\u04a3": 3391,
  "\u2581\u03ba\u03b1\u03b9": 3392,
  "\u2581mala": 3393,
  "\u2581dy": 3394,
  "\u2581meet": 3395,
  "\u0e34": 3396,
  "\u03cc": 3397,
  "\u0e32": 3398,
  "\u0d2e": 3399,
  "log": 3400,
  "\u2581\u0915\u0940": 3401,
  "\u2581rest": 3402,
  "\u2581\u0935": 3403,
  "\u0dc4": 3404,
  "\u2581\u041d\u0430": 3405,
  "mik": 3406,
  "\u0438\u0439\u0433": 3407,
  "\u2581\u0456": 3408,
  "\u043c\u0435\u043d": 3409,
  "\u2581game": 3410,
  "\u0926\u093e": 3411,
  "\u091a\u093e": 3412,
  "\u2581\u043e\u0434": 3413,
  "\u2581answered": 3414,
  "\u2581ing": 3415,
  "\u0628\u0631": 3416,
  "\u2581@": 3417,
  "\u2581Gi": 3418,
  "\u2581\u041c\u0430": 3419,
  "\u2581l\u00e8": 3420,
  "eri": 3421,
  "lor": 3422,
  "\u2581\u0e88\u0eb0": 3423,
  "\u2581flesh": 3424,
  "ane": 3425,
  "lama": 3426,
  "\u2581date": 3427,
  "\u2581moved": 3428,
  "\u0441\u0430\u043d": 3429,
  "\u2581Nations": 3430,
  "\u2581job": 3431,
  "\u0b2c": 3432,
  "\u2581\u0ec3\u0e99": 3433,
  "\u2581Most": 3434,
  "\u2581Law": 3435,
  "\u2581\u043e\u043d": 3436,
  "\u2581II": 3437,
  "\u258114.": 3438,
  "\u0cc6": 3439,
  "ov": 3440,
  "\u2581similar": 3441,
  "In": 3442,
  "del": 3443,
  "ix": 3444,
  "\u0987": 3445,
  "\u2581n\u00eb": 3446,
  "\u0436\u0435": 3447,
  "\u03cd": 3448,
  "ES": 3449,
  "\u0a41": 3450,
  "\u2581hold": 3451,
  "t\u00e0": 3452,
  "\u2581Lu": 3453,
  "\u2581stay": 3454,
  "\u258111.": 3455,
  "\u2581kia": 3456,
  "\u2581Evolution": 3457,
  "\u2581wala": 3458,
  "rs": 3459,
  "\u2581\u0686": 3460,
  "\u2581Q": 3461,
  "\u10d4\u10d1": 3462,
  "sam": 3463,
  "\u2581strength": 3464,
  "\u2581\u062f\u0648": 3465,
  "stru": 3466,
  "\u2581\u0b87": 3467,
  "\u0438\u0439": 3468,
  "\u0434\u0443": 3469,
  "\u0626\u064a": 3470,
  "\u101c": 3471,
  "\u09ae\u09be": 3472,
  "\u2581turned": 3473,
  "\u2581appropriate": 3474,
  "\u2581sense": 3475,
  "kt": 3476,
  "\u2581witness": 3477,
  "\u0499": 3478,
  "\u2581conditions": 3479,
  "\u2581\u10db": 3480,
  "\u06af": 3481,
  "all": 3482,
  "\u043c\u044b": 3483,
  "cy": 3484,
  "\u2581nge": 3485,
  "\u2581display": 3486,
  "\u2581\u0ec4\u0e94\u0ec9": 3487,
  "\u2581\u0626\u0649": 3488,
  "\u1e0d": 3489,
  "far": 3490,
  "\u09a1": 3491,
  "\u0bc7": 3492,
  "\u258115:": 3493,
  "\u0437\u0430\u0440": 3494,
  "\u10d4": 3495,
  "\u1000\u103a": 3496,
  "\u2581kaka": 3497,
  "\u041e": 3498,
  "\u2581friend": 3499,
  "\u05e8": 3500,
  "\u1021": 3501,
  "\u2581\u092e\u0947\u0902": 3502,
  "\u2581roto": 3503,
  "\u2581\u0b89": 3504,
  "\u2581\u0627\u0644\u062a": 3505,
  "\u2581ein": 3506,
  "\u2581\u0414\u0430": 3507,
  "\u2581waa": 3508,
  "taan": 3509,
  "\u2581serving": 3510,
  "sima": 3511,
  "\u2581v\u0259": 3512,
  "\u2581\u101b": 3513,
  "\u2581religious": 3514,
  "l\u0259r": 3515,
  "cia": 3516,
  "nze": 3517,
  "\u10d8\u10e1": 3518,
  "\u0442\u0430\u043d": 3519,
  "kai": 3520,
  "\u2581\u0415": 3521,
  "rie": 3522,
  "\u00fcn": 3523,
  "\u2581process": 3524,
  "\u2581large": 3525,
  "\u2581\u0434\u0443": 3526,
  "\u2581perfect": 3527,
  "\u017ee": 3528,
  "\u2581heavenly": 3529,
  "jn": 3530,
  "\u043d\u044b\u0445": 3531,
  "\u2581\u0b9a": 3532,
  "\u101b": 3533,
  "\u13b3": 3534,
  "\u1240": 3535,
  "\u2581forever": 3536,
  "000": 3537,
  "\u2581\u06a9": 3538,
  "ard": 3539,
  "\u2581Have": 3540,
  "\u00f3w": 3541,
  "\u2581principles": 3542,
  "\u0ccd": 3543,
  "\u2581religion": 3544,
  "\u0127": 3545,
  "\u00f8r": 3546,
  "\u2581interest": 3547,
  "\u0d1f": 3548,
  "\u2581mena": 3549,
  "ER": 3550,
  "\u2581services": 3551,
  "\u2581ban": 3552,
  "gwa": 3553,
  "\u2581Book": 3554,
  "kat": 3555,
  "\u0e49": 3556,
  "\u2581write": 3557,
  "\u2581San": 3558,
  "\u2581rights": 3559,
  "\u2581gy": 3560,
  "\u2581\u03b1": 3561,
  "\u2581\u0430\u0440": 3562,
  "\u2581\u0627\u0648\u06be\u0627\u0646": 3563,
  "\u0924\u0940": 3564,
  "\u12a8": 3565,
  "\u0d41\u0d02": 3566,
  "\u2581required": 3567,
  "\u2581ah\u1ee5": 3568,
  "\u2581\u0447\u0430": 3569,
  "\u2581\u305f": 3570,
  "\u0e31": 3571,
  "\u178a": 3572,
  ".\u00bb": 3573,
  "\u0441\u0442\u043e": 3574,
  "\u258115.": 3575,
  "shon": 3576,
  "\u1791": 3577,
  "sjon": 3578,
  "\u0648\u0631": 3579,
  "\u4e8b": 3580,
  "\u2581naga": 3581,
  "\u2581itu": 3582,
  "\u179c": 3583,
  "pie": 3584,
  "\u0578\u057e": 3585,
  "\u2581p\u00ebr": 3586,
  "\u10da": 3587,
  "\u2581ist": 3588,
  "\u03bf\u03c5": 3589,
  "\u0d28": 3590,
  "\u2581l\u00e0": 3591,
  "\u2581bisa": 3592,
  "llo": 3593,
  "\u258113.": 3594,
  "\u2581failed": 3595,
  "\u2581else": 3596,
  "\u2581Il": 3597,
  "\u2581Fi": 3598,
  "\u0634\u062a": 3599,
  "\u2581\u0938\u0947": 3600,
  "\u2581conduct": 3601,
  "har": 3602,
  "\u2581security": 3603,
  "way": 3604,
  "\u2581format": 3605,
  "\u2581s\u00e9": 3606,
  "\u0434\u043e": 3607,
  "eli": 3608,
  "\u2581\u0bae": 3609,
  "\u043d\u044b\u04a3": 3610,
  "\u2581d\u1ecb": 3611,
  "\u2581paragraph": 3612,
  "\u0e2d": 3613,
  "\u0438\u0440": 3614,
  "\u2581\u0d05": 3615,
  "ako": 3616,
  "los": 3617,
  "\u2581\u0ec1\u0ea5\u0eb0": 3618,
  "\u2581sal": 3619,
  "\u0574": 3620,
  "\u06cc\u0646": 3621,
  "nce": 3622,
  "\u2581\u03bd\u03b1": 3623,
  "\u2581mingi": 3624,
  "\u0baa": 3625,
  "\u0642\u0627": 3626,
  "ket": 3627,
  "zzjoni": 3628,
  "\u2581\u03c0": 3629,
  "\u2581xban": 3630,
  "\u2581pour": 3631,
  "\u258116.": 3632,
  "\u044b\u043d\u0434\u0430": 3633,
  "\u2581\u0e82\u0ead\u0e87": 3634,
  "\u0631\u0648": 3635,
  "\u2581considered": 3636,
  "gle": 3637,
  "\u0142a": 3638,
  "\u10e0": 3639,
  "\u2581Sch": 3640,
  "\u2581Will": 3641,
  "dig": 3642,
  "\u2581\u06a9\u0631\u062f": 3643,
  "\u2581\u0928": 3644,
  "tay": 3645,
  "\u0627\u062f": 3646,
  "\u0997": 3647,
  "tera": 3648,
  "\u2581nau": 3649,
  "\u2581tua": 3650,
  "\u2581stop": 3651,
  "\u2581Failed": 3652,
  "\u099f": 3653,
  "\u2581\u0626\u06c7\u0644\u0627\u0631": 3654,
  "khe": 3655,
  "rus": 3656,
  "\u043d\u0443": 3657,
  "\u2581won": 3658,
  "ou": 3659,
  "\u2581fully": 3660,
  "\u2581bala": 3661,
  "tam": 3662,
  "\u2581less": 3663,
  "if": 3664,
  "\u13b2": 3665,
  "rang": 3666,
  "\u2581Image": 3667,
  "\u2581kept": 3668,
  "\u2581\u045e": 3669,
  "\u2581financial": 3670,
  "\u2581anda": 3671,
  "\u2581Her": 3672,
  "l\u0131": 3673,
  "\u2581Ieova": 3674,
  "\u2581taught": 3675,
  "\u4e2d": 3676,
  "\u2581esta": 3677,
  "\u0435\u043b": 3678,
  "oj": 3679,
  "mani": 3680,
  "\u1789": 3681,
  "\u2581walk": 3682,
  "\u2581sins": 3683,
  "\u2581okuti": 3684,
  "\u2581sister": 3685,
  "\u2581\u0623\u0646": 3686,
  "\u2581apostles": 3687,
  "\u2581changed": 3688,
  "\u2581\u043d\u044c": 3689,
  "\u0996": 3690,
  "s\u00e9": 3691,
  "\u2581eka": 3692,
  "\u4f1a": 3693,
  "\u2581muri": 3694,
  "h\u00ed": 3695,
  "\u0cb8": 3696,
  "\u2581\u0414": 3697,
  "\u0161e": 3698,
  "\u2581rather": 3699,
  "\u2581maga": 3700,
  "\u2581\u0642\u0627": 3701,
  "\u2581pr": 3702,
  "\u04af\u04af": 3703,
  "\u2581inte": 3704,
  "ras": 3705,
  "ado": 3706,
  "\u0d28\u0d4d": 3707,
  "\u2581ngu": 3708,
  "\u2581\u1780": 3709,
  "\u2581sound": 3710,
  "\u06c8": 3711,
  "\u0438\u043c": 3712,
  "\u0441\u0442\u0430": 3713,
  "\u0301\u0328": 3714,
  "sul": 3715,
  "lam": 3716,
  "lim": 3717,
  "xo": 3718,
  "\u2581\u0eaa": 3719,
  "\u0627\u0621": 3720,
  "\u056f": 3721,
  "\u2581\u0ba4": 3722,
  "\u258115,": 3723,
  "nden": 3724,
  "\u2581matters": 3725,
  "\u04b3\u043e": 3726,
  "\u09cd\u09af": 3727,
  "bri": 3728,
  "\u0ba9": 3729,
  "\u130b": 3730,
  "We": 3731,
  "\u0129": 3732,
  "\u2581\u043e\u043b": 3733,
  "\u2581\u0a26\u0a47": 3734,
  "\u04d5\u043c": 3735,
  "\u043e\u0433\u043e": 3736,
  "\u597d": 3737,
  "ef": 3738,
  "\u2581false": 3739,
  "zione": 3740,
  "\u2581CD": 3741,
  "\u2581products": 3742,
  "\u2581J\u00e9hovah": 3743,
  "\u2581\u00e9s": 3744,
  "nne": 3745,
  "\u0ab5\u0abe": 3746,
  "\u2581ac": 3747,
  "ola": 3748,
  "\u2581View": 3749,
  "khu": 3750,
  "\u2581started": 3751,
  "\u2581yango": 3752,
  "\u2581anak": 3753,
  "\u2581l\u00f3": 3754,
  "\u2581Such": 3755,
  "zya": 3756,
  "\u2581\u00e9\u00ed": 3757,
  "\u2581offer": 3758,
  "\u179b": 3759,
  "\u05d0\u05b8": 3760,
  "\u2581\u06a9\u0631": 3761,
  "gang": 3762,
  "pla": 3763,
  "\u1229": 3764,
  "\u2581Egypt": 3765,
  "\u2581\u0ea7\u0ec8\u0eb2": 3766,
  "pon": 3767,
  "\u2581sou": 3768,
  "\u2581\u0995": 3769,
  "tho": 3770,
  "\u2581wong": 3771,
  "\u099c": 3772,
  "\u2581vir": 3773,
  "\u0434\u0456": 3774,
  "\u25815,": 3775,
  "\u258117.": 3776,
  "\u25819,": 3777,
  "\u05be": 3778,
  "\u2581sheep": 3779,
  "wy": 3780,
  "\u0436\u0438": 3781,
  "\u306b": 3782,
  "\u25814,": 3783,
  "\u2581\u0434\u0430\u0440": 3784,
  "\u2581Nga": 3785,
  "\u2581general": 3786,
  "\u010bi": 3787,
  "\u0f44\u0f0b": 3788,
  "\u2581dem": 3789,
  "\u2581subject": 3790,
  "\u2581pea": 3791,
  "phi": 3792,
  "\u2581\u0644\u0627": 3793,
  "and": 3794,
  "\u2581likely": 3795,
  "\u2581ol": 3796,
  "\u044d\u043d": 3797,
  "\u2581\u0447\u0435": 3798,
  "\u2581loved": 3799,
  "kun": 3800,
  "\u2581\u0644\u0644": 3801,
  "\u2581shows": 3802,
  "\u2581ima": 3803,
  "uka": 3804,
  "uro": 3805,
  "\u10d0\u10d3": 3806,
  "\u03c1\u03b1": 3807,
  "\u0421": 3808,
  "\u2581iai": 3809,
  "\u0443\u0430": 3810,
  "ence": 3811,
  "\u2581Mary": 3812,
  "\u2581m\u00e1a": 3813,
  "\u306f": 3814,
  "\u0cbf\u0cb8": 3815,
  "\u2581sign": 3816,
  "\u0433\u0443": 3817,
  "mene": 3818,
  "ava": 3819,
  "\u2581easy": 3820,
  "part": 3821,
  "g\u0127": 3822,
  "\u2581azo": 3823,
  "\u2581understanding": 3824,
  "\u2581\u0447\u0438": 3825,
  "\u2581market": 3826,
  "usa": 3827,
  "\u2581\u0915\u093e": 3828,
  "ON": 3829,
  "\u04d1\u0440": 3830,
  "\u2581servant": 3831,
  "\u2581Oku": 3832,
  "\u2581Mark": 3833,
  "\u2581\u092e": 3834,
  "nem": 3835,
  "\u2581mail": 3836,
  "\u2581Dan": 3837,
  "\u2581kwi": 3838,
  "\u05de": 3839,
  "\u2581People": 3840,
  "\u03c0": 3841,
  "lic": 3842,
  "tali": 3843,
  "leri": 3844,
  "dah": 3845,
  "\u0b47": 3846,
  "\u2581Timothy": 3847,
  "aw": 3848,
  "cent": 3849,
  "\u0caa": 3850,
  "\u00e1\u00e1": 3851,
  "\u2581access": 3852,
  "rik": 3853,
  "\u043b\u0438\u043a": 3854,
  "\u2581lot": 3855,
  "\u2581Save": 3856,
  "\u2581force": 3857,
  "\u2581decisions": 3858,
  "\u258114:": 3859,
  "\u2581involved": 3860,
  "\u0446\u0435": 3861,
  "\u0644\u0627\u0631": 3862,
  "\u2581serious": 3863,
  "\u043b\u0435\u043a": 3864,
  "\u2581search": 3865,
  "\u2581kin": 3866,
  "\u09b2\u09c7": 3867,
  "\u2581wat": 3868,
  "\u2581das": 3869,
  "red": 3870,
  "\u043c\u04d9": 3871,
  "\u0b26": 3872,
  "\u2581longer": 3873,
  "\u2581leswaku": 3874,
  "\u0aa1": 3875,
  "\u2581fan": 3876,
  "\u2581comp": 3877,
  "\u2581Although": 3878,
  "\u2581Mai": 3879,
  "\u1799": 3880,
  "k\u00e1": 3881,
  "vy": 3882,
  "\u2581mpo": 3883,
  "\u0649": 3884,
  "\u101e": 3885,
  "dis": 3886,
  "\u2581\u0d85": 3887,
  "\u2581Community": 3888,
  "\u2581\u12da": 3889,
  "\u2581\u043f": 3890,
  "\u2581pass": 3891,
  "\u2581Judah": 3892,
  "\u2581accordance": 3893,
  "\u2581moun": 3894,
  "\u2581sisters": 3895,
  "rem": 3896,
  "\u2581gift": 3897,
  "\u0935\u0930": 3898,
  "\u0441\u0442\u0438": 3899,
  "\u2581Car": 3900,
  "\u25816,": 3901,
  "\u10ec": 3902,
  "\u043d\u0438\u043d\u0433": 3903,
  "\u0ca8\u0ccd\u0ca8\u0cc1": 3904,
  "\u2581Vo": 3905,
  "\u2581\u0458\u0435": 3906,
  "tere": 3907,
  "\u2581Luke": 3908,
  "\u2581referred": 3909,
  "\u0430\u0441": 3910,
  "\u2581\u0432\u044b": 3911,
  "\u00ebr": 3912,
  "\u2581appointed": 3913,
  "hat": 3914,
  "\u0f44": 3915,
  "tori": 3916,
  "\u2581a\u00dfan": 3917,
  "\u00fcr": 3918,
  "\u0c47": 3919,
  "\u2581\u05e9": 3920,
  "\u041b": 3921,
  "\u2581protection": 3922,
  "\u2581single": 3923,
  "\u03b5\u03af": 3924,
  "\u0b23": 3925,
  "\u100a": 3926,
  "\u2581held": 3927,
  "\u0695\u0627\u0633\u062a\u06cc": 3928,
  "\u2581colour": 3929,
  "\u2581Since": 3930,
  "\u0c36": 3931,
  "\u2581aj": 3932,
  "\u0c30\u0c41": 3933,
  "\u0b2e": 3934,
  "kor": 3935,
  "\u2581truly": 3936,
  "\u2581listen": 3937,
  "\u0948": 3938,
  "\u05d9\u05dd": 3939,
  "\u2581married": 3940,
  "\u0631\u064a": 3941,
  "qo": 3942,
  "\u2581basis": 3943,
  "\u2581places": 3944,
  "\u0dba\u0dd2": 3945,
  "\u2581tab": 3946,
  "\u2581sacrifice": 3947,
  "\u10e3": 3948,
  "\u0c2e": 3949,
  "\u2581sala": 3950,
  "\u0430\u0442\u044c": 3951,
  "\u2581evidence": 3952,
  "\u2581\u06c1\u0645": 3953,
  "par": 3954,
  "\u2581xu": 3955,
  "amba": 3956,
  "\u011b": 3957,
  "\u17b7": 3958,
  "rat": 3959,
  "\u2581dina": 3960,
  "\u062f\u06c7\u0631": 3961,
  "\u0a42": 3962,
  "\u2581six": 3963,
  "\u2581Text": 3964,
  "\u2581ikke": 3965,
  "\u2581disc": 3966,
  "lus": 3967,
  "\u2581\u1ecb": 3968,
  "\u2581Good": 3969,
  "\u2581\u0ec0\u0e9b\u0eb1\u0e99": 3970,
  "\u03bc\u03b1": 3971,
  "\u0443\u043b": 3972,
  "\u0928\u094d": 3973,
  "tter": 3974,
  "\u0441\u04d9": 3975,
  "\u2581Okay": 3976,
  "\u2581choose": 3977,
  "\u2581n\u00e1": 3978,
  "k\u00f3": 3979,
  "\u0631\u0648\u0647": 3980,
  "\u2581ago": 3981,
  "\u2581w\u00f3": 3982,
  "sp": 3983,
  "mb": 3984,
  "\u2581\u12a5\u12e9": 3985,
  "nic": 3986,
  "\u2581\u0c06": 3987,
  "\u2581Consider": 3988,
  "\u0aa8\u0ac7": 3989,
  "\u05e6": 3990,
  "\u258135": 3991,
  "\u2581issue": 3992,
  "\u25818,": 3993,
  "\u2581esi": 3994,
  "\u0e04": 3995,
  "\u0c21": 3996,
  "v\u00e9": 3997,
  "lom": 3998,
  "ndra": 3999,
  "\u2581\u1000": 4000,
  "kla": 4001,
  "\u0151": 4002,
  "\u2581\u179a": 4003,
  "\u2581\u0915\u094b": 4004,
  "\u2581source": 4005,
  "\u2581Noah": 4006,
  "\u2581\u0425": 4007,
  "\u2581Er": 4008,
  "\u0995\u09c7": 4009,
  "\u2581Would": 4010,
  "\u2581seo": 4011,
  "\u2581\u0444": 4012,
  "\u13d2": 4013,
  "r\u00f2": 4014,
  "ian": 4015,
  "\u2581tat": 4016,
  "\u2581resurrection": 4017,
  "\u2581wants": 4018,
  "\u2581\u0439": 4019,
  "kel": 4020,
  "\u10d2": 4021,
  "\u0baa\u0bcd\u0baa": 4022,
  "\u17be": 4023,
  "\u2581anga": 4024,
  "\u0111": 4025,
  "ithe": 4026,
  "h\u00f3": 4027,
  "\u05e2\u05e8": 4028,
  "don": 4029,
  "vit": 4030,
  "30": 4031,
  "\u03c4\u03b1": 4032,
  "\u0bbf\u0baf": 4033,
  "\u2581enda": 4034,
  "\u2581attitude": 4035,
  "\u2581c\u00e4": 4036,
  "\u2581indi": 4037,
  "\u2581morning": 4038,
  "\u2581history": 4039,
  "\u2581\u0cac": 4040,
  "\u308b": 4041,
  "\u2581Create": 4042,
  "\u2581\u0440\u0435": 4043,
  "\u2581c\u00f3": 4044,
  "\u2581efforts": 4045,
  "\u2581project": 4046,
  "\u2581)": 4047,
  "\u2581ket": 4048,
  "\u06a9\u06cc": 4049,
  "nen": 4050,
  "kola": 4051,
  "\u2581While": 4052,
  "\u043a\u044b": 4053,
  "\u044d\u0440": 4054,
  "\u043e\u0441": 4055,
  "\u2581\u0d15": 4056,
  "eh": 4057,
  "\u2581training": 4058,
  "r\u00e8": 4059,
  "\u10e7": 4060,
  "AL": 4061,
  "+": 4062,
  "\u2581million": 4063,
  "\u2581ngi": 4064,
  "\u2581Does": 4065,
  "\u2581\u044f\u043a": 4066,
  "\u05bf": 4067,
  "ille": 4068,
  "\u13d9": 4069,
  "\u2581apa": 4070,
  "\u0936": 4071,
  "r\u00e4": 4072,
  "star": 4073,
  "line": 4074,
  "\u2581spoke": 4075,
  "\u2581location": 4076,
  "\u2581tro": 4077,
  "\u2581net": 4078,
  "\u2581Hey": 4079,
  "\u2581behind": 4080,
  "\u2581ame": 4081,
  "\u2581\u041f\u043e": 4082,
  "\u0e40": 4083,
  "inga": 4084,
  "\u2581judgment": 4085,
  "\u094b\u0902": 4086,
  "\u2581quality": 4087,
  "\u015b": 4088,
  "\u2581mes": 4089,
  "\u2581dha": 4090,
  "\u0442\u0430\u0439": 4091,
  "\u0a9f": 4092,
  "\u2581\u0639\u0644\u0649": 4093,
  "\u021b": 4094,
  "\u2581kom": 4095,
  "\u4ee5": 4096,
  "\u2581revealed": 4097,
  "\u2581rule": 4098,
  "\u5bf9": 4099,
  "\u258124:": 4100,
  "\u2581\u1794\u17b6\u1793": 4101,
  "\u2581leen": 4102,
  "50": 4103,
  "\u0430\u0448": 4104,
  "\u2581specific": 4105,
  "\u2581\u3066": 4106,
  "\u2581play": 4107,
  "\u2581wait": 4108,
  "\u2581\u062c": 4109,
  "gh": 4110,
  "\u2581St": 4111,
  "laki": 4112,
  "\u2581kun": 4113,
  "lon": 4114,
  "\u2581Ze": 4115,
  "\u2581parti": 4116,
  "\u0c40": 4117,
  "\u0b41": 4118,
  "kana": 4119,
  "\u2581\u0417\u0430": 4120,
  "\u0937": 4121,
  "\u2581drink": 4122,
  "\u0c32\u0c4b": 4123,
  "elle": 4124,
  "dh": 4125,
  "\u2581\u0dc3": 4126,
  "ller": 4127,
  "cul": 4128,
  "\u2581\u09b9": 4129,
  "\u2581whatever": 4130,
  "\u2581cui": 4131,
  "\u6cd5": 4132,
  "\u0c30\u0c3f": 4133,
  "\u2581naa": 4134,
  "mine": 4135,
  "\u25aa": 4136,
  "\u2581Kristo": 4137,
  "mente": 4138,
  "ive": 4139,
  "\u057d": 4140,
  "\u2581god": 4141,
  "\u2581Ai": 4142,
  "\u2581signs": 4143,
  "\u00ean": 4144,
  "\u2581results": 4145,
  "\u2581yourselves": 4146,
  "\u2581foki": 4147,
  "\u2581eye": 4148,
  "\u0569": 4149,
  "\u2581y\u00e2": 4150,
  "\u04d7\u0440": 4151,
  "\u12cb": 4152,
  "ties": 4153,
  "\u2581complete": 4154,
  "kuti": 4155,
  "\u13e9": 4156,
  "\u0b15\u0b41": 4157,
  "\u0aaa": 4158,
  "\u2581\u00e4r": 4159,
  "\u0493\u0430\u043d": 4160,
  "\u06af\u06d5": 4161,
  "\u2581guidance": 4162,
  "\u2581include": 4163,
  "\u0cc0": 4164,
  "\u0cb0\u0ccd": 4165,
  "\u2581any\u1ecb": 4166,
  "\u03b4": 4167,
  "\u2581covenant": 4168,
  "v\u00e4": 4169,
  "\u2581ande": 4170,
  "\u2581server": 4171,
  "\u2581chic": 4172,
  "\u2581\u0ba8": 4173,
  "\u2581Like": 4174,
  "ID": 4175,
  "\u0161i": 4176,
  "lis": 4177,
  "\u041d": 4178,
  "\u0436\u0430": 4179,
  "ime": 4180,
  "qar": 4181,
  "\u2581\u178a\u17c2\u179b": 4182,
  "\u2581\u13a8\u13d2": 4183,
  "\u2581taimi": 4184,
  "lie": 4185,
  "tima": 4186,
  "\u2581\u00f1u": 4187,
  "\u2581Ab": 4188,
  "\u2581feelings": 4189,
  "\u03ce": 4190,
  "\u2581looking": 4191,
  "\u2581\u0440\u0430\u0437": 4192,
  "mini": 4193,
  "--": 4194,
  "bwe": 4195,
  "\u06a9\u0627\u0646": 4196,
  "\u2581\u043f\u0443": 4197,
  "\u2581ancient": 4198,
  "\u00e4n": 4199,
  "\u2581chu": 4200,
  "\u2581either": 4201,
  "kah": 4202,
  "\u2581untuk": 4203,
  "fen": 4204,
  "\u2581everyone": 4205,
  "\u092f\u093e": 4206,
  "ob": 4207,
  "\u2581fakama": 4208,
  "\u2581k\u00f2": 4209,
  "\u0916": 4210,
  "taka": 4211,
  "\u1032": 4212,
  "\u2581run": 4213,
  "\u0c26": 4214,
  "\u2581ste": 4215,
  "jet": 4216,
  "\u093f\u0924": 4217,
  "\u2581pod": 4218,
  "\u0442\u044c": 4219,
  "\u2581Ex": 4220,
  "\u2581session": 4221,
  "het": 4222,
  "sun": 4223,
  "\u258160": 4224,
  "\u2581Det": 4225,
  "\u0161a": 4226,
  "ssen": 4227,
  "\u2581\u067e\u0648\u0621": 4228,
  "\u2060": 4229,
  "\u2581Ama": 4230,
  "bona": 4231,
  "ula": 4232,
  "d\u00e1": 4233,
  "\u2581test": 4234,
  "\u05da": 4235,
  "\u2581business": 4236,
  "\u2581Greek": 4237,
  "\u122a": 4238,
  "\u10d5": 4239,
  "\u062e\u062a": 4240,
  "\u0a23": 4241,
  "\u2581Cor": 4242,
  "\u2581mentioned": 4243,
  "\u2581Corinthians": 4244,
  "\u2581punishment": 4245,
  "\u2581shown": 4246,
  "m\u00e1": 4247,
  "\u1014\u103a": 4248,
  "\u0cb9": 4249,
  "\u0d24\u0d4d\u0d24": 4250,
  "\u2581poor": 4251,
  "\u2581fell": 4252,
  "\u2581Their": 4253,
  "\u13ac": 4254,
  ">": 4255,
  "\u2581reward": 4256,
  "\u03ad": 4257,
  "\u2581Jacob": 4258,
  "\u4e0b": 4259,
  "\u2581daughter": 4260,
  "\u2581\u1785": 4261,
  "r\u00fa": 4262,
  "\u2581Y\u00e0lla": 4263,
  "\u1348": 4264,
  "\u2581Internet": 4265,
  "\u2581obey": 4266,
  "\u2581Acts": 4267,
  "\u2581kill": 4268,
  "\u2581established": 4269,
  "\u0430\u0430": 4270,
  "\u2581final": 4271,
  "\u2581\u0915\u093f": 4272,
  "\u0648\u0627\u0646": 4273,
  "\u6765": 4274,
  "ct": 4275,
  "\u2581organization": 4276,
  "\u2581\u0448\u0443": 4277,
  "\u043d\u0430\u0440": 4278,
  "\u2581art": 4279,
  "\u2581role": 4280,
  "\u12dd": 4281,
  "\u2581este": 4282,
  "\u05d9": 4283,
  "oti": 4284,
  "\u2581draw": 4285,
  "\u2581a\u00f0": 4286,
  "mai": 4287,
  "\u2581vor": 4288,
  "\u13f4": 4289,
  "\u062a\u06d2": 4290,
  "lit": 4291,
  "cher": 4292,
  "\u2581Proverbs": 4293,
  "\u0924\u0947": 4294,
  "\u2581baa": 4295,
  "\u2581room": 4296,
  "\u2581fight": 4297,
  "\u2581kuwi": 4298,
  "\u043e\u0432\u0430": 4299,
  "\u2581oko": 4300,
  "\u2581\u092f\u093e": 4301,
  "fin": 4302,
  "\u2581kuri": 4303,
  "\u2581\u09a8\u09bf": 4304,
  "\u0bcb": 4305,
  "\u2581kuba": 4306,
  "\u2581raised": 4307,
  "\u2581\u091c\u093e": 4308,
  "\u0a97": 4309,
  "\u0dad": 4310,
  "\u0cb0\u0cc1": 4311,
  "\u0cac": 4312,
  "tud": 4313,
  "\u2581Organisation": 4314,
  "\u2581\u03bc\u03b5": 4315,
  "\u0646\u06d2": 4316,
  "mise": 4317,
  "ika": 4318,
  "\u2581video": 4319,
  "\u2581Today": 4320,
  "stre": 4321,
  "ino": 4322,
  "=": 4323,
  "\u2581vy": 4324,
  "\u06ce": 4325,
  "umu": 4326,
  "\u2581\u0417": 4327,
  "\u0cb3": 4328,
  "\u2581total": 4329,
  "\u2581comfort": 4330,
  "jek": 4331,
  "unga": 4332,
  "\u2581states": 4333,
  "cin": 4334,
  "\u2581\u0e84\u0ea7\u0eb2\u0ea1": 4335,
  "\u0ddc": 4336,
  "amo": 4337,
  "\u2581mbi": 4338,
  "\u2581pen": 4339,
  "\u06cc\u0634": 4340,
  "\u2581standards": 4341,
  "kira": 4342,
  "asi": 4343,
  "\u2581\u049b\u0430": 4344,
  "\u2581doubt": 4345,
  "\u0439\u044b": 4346,
  "dra": 4347,
  "\u04af\u043d": 4348,
  "\u2581Edit": 4349,
  "ges": 4350,
  "\u0644\u0647": 4351,
  "k\u00f2": 4352,
  "\u043b\u04d1": 4353,
  "\u2581alle": 4354,
  "mut": 4355,
  "\u0627\u0642": 4356,
  "\u2581various": 4357,
  "action": 4358,
  "\u2581sh": 4359,
  "g\u0127a": 4360,
  "stro": 4361,
  "\u2581honor": 4362,
  "like": 4363,
  "\u2581\u13e7": 4364,
  "\u0c3f": 4365,
  "\u2581manu": 4366,
  "\u0641\u0631": 4367,
  "hen": 4368,
  "\u2581ready": 4369,
  "\u2581tree": 4370,
  "tic": 4371,
  "\u2581increase": 4372,
  "\u2581\u0628\u0649\u0644\u06d5\u0646": 4373,
  "gli": 4374,
  "\u2581killed": 4375,
  "\u09a6": 4376,
  "\u2581cuan": 4377,
  "\u0525\u0448": 4378,
  "iko": 4379,
  "\u090f": 4380,
  "hana": 4381,
  "iro": 4382,
  "\u25819:": 4383,
  "\u2581month": 4384,
  "kre": 4385,
  "\u2581cut": 4386,
  "\u2581Get": 4387,
  "uko": 4388,
  "\u0d31\u0d46": 4389,
  "\u2581none": 4390,
  "\u00f1o": 4391,
  "\u2581alla": 4392,
  "\u2581\u1010": 4393,
  "\u2581\u06be": 4394,
  "\u0d26": 4395,
  "gue": 4396,
  "\u0698": 4397,
  "\u2581tur": 4398,
  "lak": 4399,
  "\u2581sama": 4400,
  "\u2581economic": 4401,
  "\u2581tri": 4402,
  "\u0630": 4403,
  "\u2581tidak": 4404,
  "\u2581events": 4405,
  "\u2581b\u00e9": 4406,
  "\u0441\u0435\u043d": 4407,
  "kali": 4408,
  "may": 4409,
  "\u2581\u10e8\u10d4": 4410,
  "\u2581\u03c4\u03bf": 4411,
  "\u2581myself": 4412,
  "\u2581English": 4413,
  "\u2581ved": 4414,
  "\u2581trans": 4415,
  "\u2581b\u00ed": 4416,
  "\u2581noa": 4417,
  "\u09a5": 4418,
  "\u2581Mat": 4419,
  "\u2581born": 4420,
  "\u2581James": 4421,
  "\u00e1t": 4422,
  "ii": 4423,
  "\u2581\u0565\u0582": 4424,
  "gun": 4425,
  "nene": 4426,
  "\u0a38\u0a3c": 4427,
  "\u2581bear": 4428,
  "\u10d9": 4429,
  "oku": 4430,
  "\u044d\u0445": 4431,
  "ub": 4432,
  "gre": 4433,
  "tani": 4434,
  "ith": 4435,
  "\u2581natural": 4436,
  "sem": 4437,
  "av": 4438,
  "\u2581Look": 4439,
  "\u2581areas": 4440,
  "\u2581doesn": 4441,
  "gha": 4442,
  "sika": 4443,
  "\u0435\u0434": 4444,
  "\u044d\u043b": 4445,
  "\u2581\u0cb8": 4446,
  "iso": 4447,
  "\u2581Y\u00e9huwah": 4448,
  "\u2581creation": 4449,
  "\u2581Ce": 4450,
  "\u2581mal": 4451,
  "\u179f\u17d2": 4452,
  "\u0b32": 4453,
  "tet": 4454,
  "\u2581\u0b8e": 4455,
  "\u0a39": 4456,
  "\u064a\u0648": 4457,
  "\u043d\u0438\u0439": 4458,
  "\u0443\u0443": 4459,
  "\u041c": 4460,
  "\u258117:": 4461,
  "\u2581\u0645\u0627\u0646": 4462,
  "\u2581hono": 4463,
  "utu": 4464,
  "\u2581suffering": 4465,
  "\u2581\u0632": 4466,
  "!\"": 4467,
  "\u2581\u0a2a": 4468,
  "rak": 4469,
  "ndan": 4470,
  "\u2581\u0a2e": 4471,
  "d\u0259n": 4472,
  "lela": 4473,
  "\u2581takes": 4474,
  "\u0b30\u0b4d": 4475,
  "\u0259n": 4476,
  "\u049f\u0430": 4477,
  "\u03c4\u03b5": 4478,
  "dem": 4479,
  "rd": 4480,
  "\u2581Ad": 4481,
  "yin": 4482,
  "\u0c42": 4483,
  "\u03b2": 4484,
  "\u2581First": 4485,
  "\u0448\u0438": 4486,
  "\u0415": 4487,
  "\u2581l\u00e9": 4488,
  "\u0aa8\u0abe": 4489,
  "\u2581urang": 4490,
  "AR": 4491,
  "ese": 4492,
  "\u2581Search": 4493,
  "\u2581post": 4494,
  "f\u00f8r": 4495,
  "\u2581named": 4496,
  "\u0ab6": 4497,
  "\u0441\u0443": 4498,
  "\u2581ensure": 4499,
  "\u2581\u042f": 4500,
  "\u2581path": 4501,
  "\u2581panag": 4502,
  "\u2581feet": 4503,
  "\u2581dal": 4504,
  "\u25817,": 4505,
  "\u043b\u0435\u043d": 4506,
  "\u2581\u03c4\u03b7\u03c2": 4507,
  "\u2581followed": 4508,
  "\u0442\u044b\u0440": 4509,
  "AN": 4510,
  "sal": 4511,
  "\u10d6": 4512,
  "\u2581\u0939\u094b": 4513,
  "\u2581Set": 4514,
  "n\u00e1": 4515,
  "\u0117": 4516,
  "lum": 4517,
  "\u2581\u0438\u0441": 4518,
  "\u2581\u0e84\u0ebb\u0e99": 4519,
  "cio": 4520,
  "stri": 4521,
  "\u0438\u0439\u043d": 4522,
  "\u2581trying": 4523,
  "\u8981": 4524,
  "bit": 4525,
  "vaka": 4526,
  "\u2581actually": 4527,
  "\u2581several": 4528,
  "\u2581government": 4529,
  "\u2581\u06cc\u06c1": 4530,
  "\u2581imitate": 4531,
  "\u2581regarding": 4532,
  "eta": 4533,
  "\u2581fast": 4534,
  "\u0d40": 4535,
  "\u09a3": 4536,
  "\u2581Remove": 4537,
  "\u0a82": 4538,
  "\u2581status": 4539,
  "\u13eb": 4540,
  "\u2581enggau": 4541,
  "\u2581offering": 4542,
  "iv": 4543,
  "\u12bd": 4544,
  "\u2581tale": 4545,
  "\u2581\u0c86": 4546,
  "\u2581Ua": 4547,
  "\u2581lived": 4548,
  "\u2581examples": 4549,
  "\u0578\u0572": 4550,
  "\u0432\u0443": 4551,
  "\u2581authorities": 4552,
  "moni": 4553,
  "tanga": 4554,
  "\u2581rej": 4555,
  "\u2581\u03c3": 4556,
  "\u2581Group": 4557,
  "ance": 4558,
  "\u2581\u1780\u17b6\u179a": 4559,
  "\u043e\u0443": 4560,
  "\u2581Annex": 4561,
  "\u2581Faka": 4562,
  "tti": 4563,
  "tat": 4564,
  "\u2581\u00fe": 4565,
  "\u2581tr": 4566,
  "h\u00e1": 4567,
  "sut": 4568,
  "\u2581\u1005": 4569,
  "ys": 4570,
  "\u2581\u067e\u0627": 4571,
  "\u2581preach": 4572,
  "ose": 4573,
  "\u2581qualities": 4574,
  "\u0ab5": 4575,
  "\u2581everlasting": 4576,
  "He": 4577,
  "\u2581\u041c": 4578,
  "\u2581build": 4579,
  "\u2581Directive": 4580,
  "\u062a\u0649": 4581,
  "dzo": 4582,
  "nnen": 4583,
  "\u2581\u0434\u0438": 4584,
  "llen": 4585,
  "ec": 4586,
  "\u2581getting": 4587,
  "\u0acd": 4588,
  "\u2581\u0e9b": 4589,
  "\u2581\u101e\u100a\u103a": 4590,
  "tara": 4591,
  "\u05e4\u05bc": 4592,
  "mina": 4593,
  "\u0443\u0432\u0430": 4594,
  "\u2581nde": 4595,
  "\u0437\u0443": 4596,
  "\u00f5n": 4597,
  "\u2581itself": 4598,
  "\u2581showed": 4599,
  "\u2581promised": 4600,
  "zy": 4601,
  "eka": 4602,
  "\u0561\u0575": 4603,
  "\u2581followers": 4604,
  "ffe": 4605,
  "\u2581b\u1ee5": 4606,
  "k\u1ecd": 4607,
  "t\u00e4": 4608,
  "\u043e\u043a": 4609,
  "\u2581deal": 4610,
  "\u2581fruit": 4611,
  "ute": 4612,
  "non": 4613,
  "\u043c\u0430\u0441": 4614,
  "\u0b9a": 4615,
  "\u2581Here": 4616,
  "\u2581praise": 4617,
  "cor": 4618,
  "\u0578\u0580": 4619,
  "\u0ca3": 4620,
  "\u0435\u043d\u0438\u044f": 4621,
  "\u2581\u06d4": 4622,
  "lary": 4623,
  "ction": 4624,
  "\u2581Samuel": 4625,
  "\u0644\u0649\u0642": 4626,
  "\u0644\u064a": 4627,
  "\u2581option": 4628,
  "\u2581\u0427": 4629,
  "\u2581Sam": 4630,
  "bele": 4631,
  "\u2581\u12d8": 4632,
  "\u0f5a": 4633,
  "\u2581\u13c4": 4634,
  "mail": 4635,
  "\u2581actions": 4636,
  "\u2581\u0431\u044b": 4637,
  "\u2581ubu": 4638,
  "\u09af\u09bc": 4639,
  "\u10d4\u10dc": 4640,
  "\u2581Eli": 4641,
  "\u2581baba": 4642,
  "\u0cca": 4643,
  "n\u00eb": 4644,
  "\u2581circumstances": 4645,
  "\u0a1f": 4646,
  "\u1796": 4647,
  "\u13cd\u13a9": 4648,
  "\u2581deeds": 4649,
  "\u2581America": 4650,
  "\u2581kor": 4651,
  "idad": 4652,
  "\u2581led": 4653,
  "\u0643\u0649": 4654,
  "\u2581individuals": 4655,
  "\u2581fall": 4656,
  "\u2581Jes\u00fas": 4657,
  "\u0e1e": 4658,
  "\u2581\u13a6": 4659,
  "\u2581mill": 4660,
  "\u1004\u103a": 4661,
  "\u0642\u0649": 4662,
  "\u3092": 4663,
  "\u258118.": 4664,
  "\u2581mg": 4665,
  "ntes": 4666,
  "leke": 4667,
  "\u2581slave": 4668,
  "\u2581related": 4669,
  "til": 4670,
  "\u2581commanded": 4671,
  "long": 4672,
  "\u2581loo": 4673,
  "ell": 4674,
  "\u13e3": 4675,
  "\u2581\u1000\u103c": 4676,
  "ih": 4677,
  "\u2581l\u00e1": 4678,
  "\u2581Romans": 4679,
  "\u0448\u044c": 4680,
  "\u2581moko": 4681,
  "\u0442\u04d5": 4682,
  "\u2581concerned": 4683,
  "\u2581allowed": 4684,
  "\u2581fl": 4685,
  "\u2581\u0c2a": 4686,
  "\u04e7": 4687,
  "\u2581\u0130": 4688,
  "\u10dc": 4689,
  "hay": 4690,
  "\u2581tia": 4691,
  "\u2581\u0909": 4692,
  "\u2581determined": 4693,
  "\u2581\u04b3": 4694,
  "\u2581rules": 4695,
  "m\u0101": 4696,
  "\u043e\u0439": 4697,
  ")\u060c": 4698,
  "\u0561\u0581": 4699,
  "\u2581gone": 4700,
  "\u2581\u062f\u0627": 4701,
  "\u3057": 4702,
  "\u5927": 4703,
  "\u09c7\u09b0": 4704,
  "\u057b": 4705,
  "\u2581l\u0113": 4706,
  "\u0924\u094d\u0930": 4707,
  "\u2581opened": 4708,
  "\u05d9\u05e7": 4709,
  "\u2581Aba": 4710,
  "\u2581taha": 4711,
  "\u04e9\u043d": 4712,
  "\u2581d\u00e1": 4713,
  "\u2581kh\u00f4ng": 4714,
  "\u2581lay": 4715,
  "\u17b8": 4716,
  "\u0449\u0438": 4717,
  "q\u00dfue": 4718,
  "\u2581due": 4719,
  "\u062f\u06d5": 4720,
  "d\u00ed": 4721,
  "\u043a\u0456": 4722,
  "\u2581hours": 4723,
  "\u2581user": 4724,
  "\u2581\u13e5": 4725,
  "yar": 4726,
  "\u2581bol": 4727,
  "\u56fd": 4728,
  "\u2581Den": 4729,
  "\u2581jeung": 4730,
  "\u0930\u0940": 4731,
  "\u04af\u0440": 4732,
  "\u2581hour": 4733,
  "\u00f6r": 4734,
  "\u30fc": 4735,
  "\u2581asi": 4736,
  "\u2581\u0ea7\u0eb2": 4737,
  "15": 4738,
  "\u2581\u0627\u06cc\u0634\u0627\u0646": 4739,
  "\u2581sida": 4740,
  "\u2581amount": 4741,
  "\u2581\u1235": 4742,
  "\u0121": 4743,
  "\u2581relevant": 4744,
  "w\u00e9": 4745,
  "\u2581\u062c\u0646": 4746,
  "\u2581\u00c9": 4747,
  "ima": 4748,
  "\u0dcf": 4749,
  "\u2581Pri": 4750,
  "ista": 4751,
  "\u043b\u0435\u0440": 4752,
  "Re": 4753,
  "mati": 4754,
  "\u0ec2\u0eab": 4755,
  "\u06cc\u06ba": 4756,
  "\u2581Gra": 4757,
  "vet": 4758,
  "\u043e\u0440": 4759,
  "\u2581opportunity": 4760,
  "\u0d42": 4761,
  "\u2581\u0634": 4762,
  "\u0107e": 4763,
  "\u2581dis": 4764,
  "\u2581cum": 4765,
  "\u0648\u0627": 4766,
  "\u2581\u0422\u043e": 4767,
  "\u0628\u0627": 4768,
  "wn": 4769,
  "\u03c0\u03bf": 4770,
  "\u2581modern": 4771,
  "\u2581System": 4772,
  "\u2581priest": 4773,
  "tit": 4774,
  "\u0c38": 4775,
  "\u2581como": 4776,
  "\u2581\u03b5": 4777,
  "ture": 4778,
  "\u09bf\u09a4": 4779,
  "\u13da": 4780,
  "ral": 4781,
  "\u2581\u0d06": 4782,
  "\u00e4r": 4783,
  "m\u0259": 4784,
  "\u2581happen": 4785,
  "\u0aaf": 4786,
  "\u102d": 4787,
  "\u0648\u0645": 4788,
  "\u2581provisions": 4789,
  "\u2581ren": 4790,
  "igi": 4791,
  "\u2581\u00bf": 4792,
  "\u0d39": 4793,
  "\u2581gan": 4794,
  "\u2581believed": 4795,
  "\u2581cast": 4796,
  "\u2581st": 4797,
  "\u0938\u094d": 4798,
  "\u0a21": 4799,
  "\u0446\u0430": 4800,
  "ril": 4801,
  "\u2581Other": 4802,
  "\u2581tax": 4803,
  "\u2581education": 4804,
  "lar\u0131": 4805,
  "\u091a\u0947": 4806,
  "\u2581political": 4807,
  "\u2581\u101c": 4808,
  "\u2581saved": 4809,
  "\u2581main": 4810,
  "\u2581\u0ea1\u0eb5": 4811,
  "taa": 4812,
  "\u2581\u0422\u0430": 4813,
  "\u2581sight": 4814,
  "lai": 4815,
  "\u0932\u0940": 4816,
  "\u2581Paulo": 4817,
  "symbols": 4818,
  "\u2581tuku": 4819,
  "\u2581Africa": 4820,
  "\u2581\u043f\u043e\u0434": 4821,
  "\u2581\u10e1\u10d0": 4822,
  "kara": 4823,
  "\u10d3\u10d0": 4824,
  "\u043f\u043e": 4825,
  "\u0443\u043d": 4826,
  "\u2581class": 4827,
  "\u2581\u0ec0\u0ea2": 4828,
  "\u2581direction": 4829,
  "\u2581\u0259": 4830,
  "\u0915\u094d": 4831,
  "\u2581\u0caa": 4832,
  "stat": 4833,
  "\u2581Creator": 4834,
  "\u2581\u1787\u17b6": 4835,
  "w\u00f3": 4836,
  "\u04e9\u04e9": 4837,
  "\u10eb": 4838,
  "\u2581umu": 4839,
  "\u5b9a": 4840,
  "\u0627\u0628": 4841,
  "\u1323": 4842,
  "\u2581\u0431\u0430\u0439": 4843,
  "\u2581reach": 4844,
  "\u2581ho\u00ea": 4845,
  "\u2581\u00bb,": 4846,
  "gal": 4847,
  "\u2581\u0ab8": 4848,
  "\u03c9\u03bd": 4849,
  "\u3046": 4850,
  "\u2581info": 4851,
  "\u2581Por": 4852,
  "\u5730": 4853,
  "\u2581mode": 4854,
  "\u304b": 4855,
  "\u0441\u044b\u043d": 4856,
  "\u2581\u0a28\u0a42\u0a70": 4857,
  "\u044f\u043d": 4858,
  "\u2581policy": 4859,
  "\u0431\u0443": 4860,
  "\u0441\u043e": 4861,
  "\u2581\u0421\u043e": 4862,
  "\u2581\u062e\u062f\u0627": 4863,
  "\u2581clean": 4864,
  "\u2581product": 4865,
  "mpo": 4866,
  "bin": 4867,
  "\u2581aye": 4868,
  "\u0f46": 4869,
  "\u2581mbeni": 4870,
  "\u2581War": 4871,
  "\u2581chan": 4872,
  "\u1203": 4873,
  "\u2581kuwa": 4874,
  "\u0ab9": 4875,
  "ee": 4876,
  "\u094d\u0935": 4877,
  "\u00e9e": 4878,
  "\u2581\u043a\u044b\u043b": 4879,
  "ms": 4880,
  "\u0435\u0438": 4881,
  "\u120a": 4882,
  "\u2581section": 4883,
  "\u258114,": 4884,
  "\u13d5": 4885,
  "\u2581December": 4886,
  "\u2581K\u00e2cua\u00df": 4887,
  "\u2581servi": 4888,
  "vin": 4889,
  "\u0d38\u0d4d": 4890,
  "\u09cd\u09af\u09be": 4891,
  "af": 4892,
  "\u258116:": 4893,
  "\u06be\u0648": 4894,
  "\u2581\u092a\u0930": 4895,
  "\u0e4c": 4896,
  "gh\u1ecb": 4897,
  "lala": 4898,
  "\u12e8": 4899,
  "gira": 4900,
  "\u0431\u0435": 4901,
  "\u0fb2": 4902,
  "\u2581\u0436": 4903,
  "ero": 4904,
  "\u2581kada": 4905,
  "leb": 4906,
  "\u00f6n": 4907,
  "\u0927": 4908,
  "\u2581\u0432\u04d9": 4909,
  "\u4e3a": 4910,
  "kaka": 4911,
  "\u2581progress": 4912,
  "\u0eab": 4913,
  "dor": 4914,
  "\u2581\u043d\u04d5": 4915,
  "\u2581Para": 4916,
  "\u2581\u0445\u0443": 4917,
  "\u2581addition": 4918,
  "\u2581\u17a2\u17d2\u1793\u1780": 4919,
  "\u2581freedom": 4920,
  "\u0563": 4921,
  "\u2581tawo": 4922,
  "\u0648\u062f": 4923,
  "\u062c\u06be": 4924,
  "zwe": 4925,
  "\u0641\u062a": 4926,
  "ciones": 4927,
  "bet": 4928,
  "\u2581visit": 4929,
  "\u2581space": 4930,
  "\u2581\u12eb": 4931,
  "\u2581spiritually": 4932,
  "nsa": 4933,
  "\u0433\u0435\u043d": 4934,
  "\u2581Apa": 4935,
  "tir": 4936,
  "\u0d30\u0d4d": 4937,
  "ug": 4938,
  "\u2581\u0644\u0627\u0621": 4939,
  "usi": 4940,
  "ew": 4941,
  "\u0c17": 4942,
  "\u0641\u0627": 4943,
  "\u2581j\u00e9": 4944,
  "\u2581mafai": 4945,
  "car": 4946,
  "\u2581\u0433": 4947,
  "art": 4948,
  "y\u0148": 4949,
  "agi": 4950,
  "nom": 4951,
  "\u00e7i": 4952,
  "hle": 4953,
  "\u062f\u0648": 4954,
  "aq": 4955,
  "\u2581pos": 4956,
  "\u0645\u0649": 4957,
  "\u0581": 4958,
  "\u120e": 4959,
  "\u2581blessings": 4960,
  "\u2581request": 4961,
  "\u2581company": 4962,
  "\u09ac\u09be": 4963,
  "\u2581Synchronis": 4964,
  "\u04d7\u043d": 4965,
  "\u2581wish": 4966,
  "\u2581\u0431\u0438\u043b": 4967,
  "tele": 4968,
  "\u10e4": 4969,
  "ret": 4970,
  "\u0442\u0456": 4971,
  "\u0646\u06cc": 4972,
  "\u2581office": 4973,
  "vol": 4974,
  "\u0561\u057f": 4975,
  "\u2581deep": 4976,
  "iya": 4977,
  "vas": 4978,
  "\u2581priests": 4979,
  "ep": 4980,
  "rish": 4981,
  "\u2581simply": 4982,
  "No": 4983,
  "\u2581returned": 4984,
  "chen": 4985,
  "ifica": 4986,
  "\u2581\u0430\u0434": 4987,
  "esi": 4988,
  "\u2581\u00f6": 4989,
  "dre": 4990,
  "\u00e2l": 4991,
  "\u2581Type": 4992,
  "\u0d2a": 4993,
  "\u2581\u062a\u064a": 4994,
  "\u043e\u043b": 4995,
  "\u010de": 4996,
  "\u2581mark": 4997,
  "\u2581bit": 4998,
  "\u2581laid": 4999,
  "\u0c17\u0c3e": 5000,
  "\u51fa": 5001,
  "\u2581\u015e": 5002,
  "\u0e38": 5003,
  "\u0f41": 5004,
  "\u2581#": 5005,
  "mek": 5006,
  "\u0f0b\u0f56": 5007,
  "\u2581Right": 5008,
  "\u016f": 5009,
  "zar": 5010,
  "\u2581imi": 5011,
  "hara": 5012,
  "\u2581standard": 5013,
  "\u2581prayers": 5014,
  "\u0d31": 5015,
  "\u2581\u0916": 5016,
  "\u2581lor": 5017,
  "rom": 5018,
  "\u2581mouth": 5019,
  "\u2581bilen": 5020,
  "\u0257a": 5021,
  "ida": 5022,
  "\u2581Ng": 5023,
  "UN": 5024,
  "\u2581lautolu": 5025,
  "\u2581Revelation": 5026,
  "\u2581perhaps": 5027,
  "\u2581meaning": 5028,
  "\u2581During": 5029,
  "\u2581\u0646\u06c1\u06cc\u06ba": 5030,
  "dina": 5031,
  "\u2581\u00fc\u00e7in": 5032,
  "\u2581mere": 5033,
  "fs": 5034,
  "\u13ce": 5035,
  "BAR": 5036,
  "\u0925": 5037,
  "\u2581\u00ea": 5038,
  "\u13b6": 5039,
  "\u2581daga": 5040,
  "\u2581short": 5041,
  "\u04e9\u0440": 5042,
  "heb": 5043,
  "\u0433\u044a": 5044,
  "\u2581\u0448": 5045,
  "\u0dc3\u0dca": 5046,
  "igu": 5047,
  "nut": 5048,
  "\u043a\u0430\u043d": 5049,
  "\u2581provides": 5050,
  "\u04ef": 5051,
  "sil": 5052,
  "\u2581kay": 5053,
  "tek": 5054,
  "\u1005": 5055,
  "\u2581\u1794\u17d2\u179a": 5056,
  "\u2581\u0a9b\u0ac7": 5057,
  "nera": 5058,
  "\u2581\u0411\u0430": 5059,
  "\u0420": 5060,
  "ddi": 5061,
  "\u2581\u0431\u0435\u043b\u04d9\u043d": 5062,
  "suu": 5063,
  "\u0c4b": 5064,
  "\u13e8": 5065,
  "\u2581s\u00ec": 5066,
  "\u2581super": 5067,
  "\u10de": 5068,
  "\u2581requirements": 5069,
  "\u0440\u0430\u0442": 5070,
  "\u2581nakai": 5071,
  "\u0433\u04d9\u043d": 5072,
  "\u2581\u0626\u06c7": 5073,
  "\u2581baka": 5074,
  "\u2581\u0433\u0430": 5075,
  "\u2581Information": 5076,
  "sso": 5077,
  "\u2581lege": 5078,
  "\u2581din": 5079,
  "\u0645\u0646": 5080,
  "Na": 5081,
  "tive": 5082,
  "\u2581\u0906\u0939\u0947": 5083,
  "\u101e\u100a\u103a": 5084,
  "gga": 5085,
  "\u2581behold": 5086,
  "\u2581q": 5087,
  "\u2581mei": 5088,
  "\u0e48": 5089,
  "\u10f2": 5090,
  "\u2581m\u00e1": 5091,
  "\u2581ez": 5092,
  "\u2581letter": 5093,
  "\u2581Parliament": 5094,
  "\u2581programme": 5095,
  "\u1213": 5096,
  "jin": 5097,
  "\u2581hy": 5098,
  "tok": 5099,
  "\u2581t\u00ebn\u00eb": 5100,
  "\u2581maintain": 5101,
  "\u2581Holy": 5102,
  "dha": 5103,
  "\u0633\u0649": 5104,
  "\u2581forward": 5105,
  "hin": 5106,
  "Ka": 5107,
  "tions": 5108,
  "\u2581energy": 5109,
  "\u2581dit": 5110,
  "ier": 5111,
  "\u2581\u0aac": 5112,
  "\u064a\u0631": 5113,
  "\u2581week": 5114,
  "*": 5115,
  "\u2581kur": 5116,
  "\u2581\u25a1": 5117,
  "p\u00f2": 5118,
  "\u2581\u0b2a": 5119,
  "\u2581\u03c4\u03bf\u03c5": 5120,
  "\u2581\u0c87": 5121,
  "\u2581noku": 5122,
  "st\u00e4": 5123,
  "\u2581legal": 5124,
  "\u2581half": 5125,
  "kuru": 5126,
  "\u2581thousand": 5127,
  "\u2581katoa": 5128,
  "\u2581instead": 5129,
  "\u2581\u0a26\u0a40": 5130,
  "\u2581;": 5131,
  "\u2581Ben": 5132,
  "mwa": 5133,
  "\u2581empty": 5134,
  "\u0e42": 5135,
  "\u0446\u04d9\u0430": 5136,
  "\u2581cases": 5137,
  "\u2581added": 5138,
  "\u2581vil": 5139,
  "nti": 5140,
  "\u5c31": 5141,
  "her": 5142,
  "\u2581\u09ae": 5143,
  "\u258110,": 5144,
  "\u2581\u0d2a": 5145,
  "\u2581mama": 5146,
  "\u2581cor": 5147,
  "\u2581loyal": 5148,
  "\u03c1\u03bf": 5149,
  "mul": 5150,
  "\u0933": 5151,
  "\u2581remove": 5152,
  "\u00fcl": 5153,
  "\u2581bato": 5154,
  "\u2581Ek": 5155,
  "\u2581Zi": 5156,
  "\u258111,": 5157,
  "lal": 5158,
  "ena": 5159,
  "\u2581Dr": 5160,
  "\u2581dau": 5161,
  "lyk": 5162,
  "\u0645\u0648\u0648": 5163,
  "tem": 5164,
  "\u0695": 5165,
  "oa": 5166,
  "g\u00fc": 5167,
  "\u2581Ak": 5168,
  "bere": 5169,
  "\u0901": 5170,
  "\u0644\u0649\u0631\u0649": 5171,
  "\u2581Um": 5172,
  "nos": 5173,
  "mmer": 5174,
  "\u2581\u0438\u043b": 5175,
  "i\u0148": 5176,
  "\u2581dans": 5177,
  "ole": 5178,
  "gon": 5179,
  "\u2581waka": 5180,
  "\u2014": 5181,
  "stel": 5182,
  "law": 5183,
  "lat": 5184,
  "gera": 5185,
  "\u2581tenamit": 5186,
  "kal": 5187,
  "\u2581Spirit": 5188,
  "gna": 5189,
  "lement": 5190,
  "\u2581\u0926": 5191,
  "mpu": 5192,
  "\u7528": 5193,
  "\u0cc1\u0cb5": 5194,
  "banga": 5195,
  "tina": 5196,
  "\u2581supported": 5197,
  "\u09a4\u09c7": 5198,
  "\u2581table": 5199,
  "\u2581continued": 5200,
  "\u2581default": 5201,
  "\u0915\u093e": 5202,
  "\u0b2a": 5203,
  "\u2581mereka": 5204,
  "\u2581\u0e81\u0eb2\u0e99": 5205,
  "\u2581Babylon": 5206,
  "\u2581parau": 5207,
  "\u2581responsibility": 5208,
  "\u2581chak": 5209,
  "\u2581Qu": 5210,
  "\u2581\u10db\u10dd": 5211,
  "\u2581soo": 5212,
  "\u2581gain": 5213,
  "\u2581\u0644\u06ce": 5214,
  "\u2581sort": 5215,
  "\u2581check": 5216,
  "\u2581normal": 5217,
  "RE": 5218,
  "ei": 5219,
  "\u0b95\u0bcd": 5220,
  "\u2581speaking": 5221,
  "\u2581Only": 5222,
  "awa": 5223,
  "yna": 5224,
  "mor": 5225,
  "\u2581willing": 5226,
  "\u2581\u0e9a\u0ecd\u0ec8": 5227,
  "\u2581kolo": 5228,
  "\u0a26": 5229,
  "\u2581Del": 5230,
  "fra": 5231,
  "\u2581big": 5232,
  "\u2581\u0648\u0647": 5233,
  "\u0631\u0627\u0646": 5234,
  "kur": 5235,
  "\u2581Ser": 5236,
  "\u2581p\u00ebpe": 5237,
  "\u2581password": 5238,
  "\u2581active": 5239,
  "\u2581aton": 5240,
  "\u2581region": 5241,
  "\u2581direct": 5242,
  "\u2581l\u00ea": 5243,
  "\u2581i\u0161": 5244,
  "\u25812008": 5245,
  "\u2581\u0a26": 5246,
  "\u00ebn": 5247,
  "\u2581effort": 5248,
  "\u043c\u0443": 5249,
  "\u00fdar": 5250,
  "\u2581regular": 5251,
  "\u2581mer": 5252,
  "\u2581toko": 5253,
  "\u2581carry": 5254,
  "\u2581specified": 5255,
  "nek": 5256,
  "\u0649\u0646\u0649": 5257,
  "\u2581kadagiti": 5258,
  "ono": 5259,
  "\u2581kad": 5260,
  "\u2581International": 5261,
  "\u2581powerful": 5262,
  "\u7b2c": 5263,
  "rana": 5264,
  "\u1231": 5265,
  "\u2581ok": 5266,
  "\u0bc6": 5267,
  "\u2581persons": 5268,
  "\u0ead": 5269,
  "\u2581\u0ec0\u0e88\u0ebb\u0ec9\u0eb2": 5270,
  "\u2581\u0628\u0627\u0644": 5271,
  "shu": 5272,
  "\u2581omu": 5273,
  "\u2581wonderful": 5274,
  "\u05b7": 5275,
  "\u03c1\u03b9": 5276,
  "\u0bb2\u0bcd": 5277,
  "\u2581kami": 5278,
  "\u2581justice": 5279,
  "\u00e1il": 5280,
  "\u0b9f": 5281,
  "\u0432\u0456": 5282,
  "\u2581protect": 5283,
  "\u0bbf\u0ba9\u0bcd": 5284,
  "\u2581mba": 5285,
  "\u304c": 5286,
  "\u03b6": 5287,
  "\u0432\u0430\u0440": 5288,
  "\u2581icon": 5289,
  "\u0646\u06be\u0646": 5290,
  "\u2581\u0574": 5291,
  "\u2581tele": 5292,
  "\u2581\u04d5\u043c\u04d5": 5293,
  "\u0c39": 5294,
  "\u0ab8": 5295,
  "\u1273\u1275": 5296,
  "\u2581confidence": 5297,
  "\u2581physical": 5298,
  "\u0ca7": 5299,
  "cur": 5300,
  "\u0ba8\u0bcd\u0ba4": 5301,
  "kki": 5302,
  "\u258121:": 5303,
  "\u25812006": 5304,
  "z\u00eb": 5305,
  "\u2581\u09aa\u09cd\u09f0": 5306,
  "form": 5307,
  "ding": 5308,
  "\u2581eli": 5309,
  "\u2581\u0434\u043b\u044f": 5310,
  "\u0eb2\u0e99": 5311,
  "jan": 5312,
  "\u0f61": 5313,
  "\u2581\u041c\u043e": 5314,
  "\u0bbe\u0bb0\u0bcd": 5315,
  "\u10d4\u10d1\u10d0": 5316,
  "\u2581\u0a15\u0a3f": 5317,
  "\u2581hoki": 5318,
  "\u2581ulih": 5319,
  ">>cor<<": 5320,
  "\u2581List": 5321,
  "\u2581abantu": 5322,
  "\u2581abo": 5323,
  "gura": 5324,
  "\u2581fathers": 5325,
  "\u2581ran": 5326,
  "\u043b\u0430\u0440\u0438": 5327,
  "\u2581tene": 5328,
  "\u0930\u0947": 5329,
  "win": 5330,
  "\u0ebb": 5331,
  "\u2581enemies": 5332,
  "\u0456\u043d": 5333,
  "\u2581thereof": 5334,
  "\u2581q\u00eb": 5335,
  "\u2581\u043f\u0440\u0435": 5336,
  "\u2581tried": 5337,
  "\u25812000": 5338,
  "\u2581\u0430\u043c": 5339,
  "\u2581Time": 5340,
  "\u2581fun": 5341,
  "\u1290\u1275": 5342,
  "\u0163i": 5343,
  "\u0b1a": 5344,
  "\u044b\u0439": 5345,
  "AS": 5346,
  "\u2581older": 5347,
  "\u2581messages": 5348,
  "\u2581base": 5349,
  "\u2581fir": 5350,
  "\u2581button": 5351,
  "info": 5352,
  "\u00e6r": 5353,
  "gel": 5354,
  "\u2581According": 5355,
  "\u0648\u06cc": 5356,
  "\u2581tayo": 5357,
  "\u2581\u13be": 5358,
  "bile": 5359,
  "\u2581\u057f": 5360,
  "\u2581kona": 5361,
  "\u2581building": 5362,
  "\u0131n": 5363,
  "xic": 5364,
  "\u2581outside": 5365,
  "\u2581\u0d28": 5366,
  "rek": 5367,
  "\u258112,": 5368,
  "\u2581\u0924\u094b": 5369,
  "\u091a\u0940": 5370,
  "\u2581sega": 5371,
  "lisa": 5372,
  "rna": 5373,
  "ingen": 5374,
  "\u05f0": 5375,
  "\u2581Roma": 5376,
  "\u2581deka": 5377,
  "OR": 5378,
  "iri": 5379,
  "\u0aa5": 5380,
  "\u2581add": 5381,
  "jas": 5382,
  "ffi": 5383,
  "\u2581accepted": 5384,
  "\u2581risk": 5385,
  "\u0915\u094d\u0937": 5386,
  "\u1278\u12cd": 5387,
  "\u2581hundred": 5388,
  "\u2581bread": 5389,
  "\u2581tena": 5390,
  "\u0938\u094d\u0924": 5391,
  "\u2581\u0448\u0438": 5392,
  "wal": 5393,
  "\u2581cities": 5394,
  "\u2581\u04d9": 5395,
  "but": 5396,
  "\u0c3f\u0c02\u0c1a": 5397,
  "w\u00f2": 5398,
  "\u2581\u0628\u06c7": 5399,
  "gara": 5400,
  "\u2581ska": 5401,
  "kisa": 5402,
  "\u2581\u06af\u0641\u062a": 5403,
  "\u04e1": 5404,
  "\u2581Devil": 5405,
  "\u2581pot": 5406,
  "\u2581\u062e\u062f\u0627\u0648\u0646\u062f": 5407,
  "tayo": 5408,
  "weni": 5409,
  "\u2581\u0d9a": 5410,
  "\u2581values": 5411,
  "\u2581bes": 5412,
  "ete": 5413,
  "\u2581Rather": 5414,
  "\u2581blessing": 5415,
  "\u2581winak": 5416,
  "\u2581hal": 5417,
  "\u0b30\u0b47": 5418,
  "\u25812007": 5419,
  "\u2581dire": 5420,
  "\u258119.": 5421,
  "\u2581\u090f\u0915": 5422,
  "\u2581olu": 5423,
  "\u2581URL": 5424,
  "\u2581mang": 5425,
  "\u2581management": 5426,
  "\u10e8\u10d8": 5427,
  "\u2581Im": 5428,
  "\u8005": 5429,
  "\u2581prepared": 5430,
  "\u043f\u0435": 5431,
  "\u2581individual": 5432,
  "\u2581destroyed": 5433,
  "\u2581\u0634\u0627": 5434,
  "was": 5435,
  "\u2581\u063a": 5436,
  "\u2581condition": 5437,
  "\u0e17\u0e35\u0e48": 5438,
  "\u0b24": 5439,
  "\u0d23": 5440,
  "\u04f3": 5441,
  "\u2581\u0395": 5442,
  "MA": 5443,
  "\u2581Far": 5444,
  "nyi": 5445,
  "kh": 5446,
  "\u2581Take": 5447,
  "\u2581beginning": 5448,
  "\u2581\u0db4": 5449,
  "\u041a": 5450,
  "\u2581Ana": 5451,
  "\u0ba4\u0bbf": 5452,
  "\u1262": 5453,
  "\u2581inspired": 5454,
  "\u0d9c": 5455,
  "\u2581\u0431\u0435": 5456,
  "\u2581inc\u00dfa\u00df": 5457,
  "\u0435\u043d\u0438\u0435": 5458,
  "\u305f": 5459,
  "ann": 5460,
  "\u2581\u17a2": 5461,
  "\u2581angel": 5462,
  "EL": 5463,
  "\u2581\u0bb5": 5464,
  "\u0c4d\u0c2f": 5465,
  "\u03af\u03b1": 5466,
  "\u258119:": 5467,
  "\u2581helps": 5468,
  "pfu": 5469,
  "\u0259t": 5470,
  "\u2581ty": 5471,
  "\u2581\u0410\u043b\u043b\u043e\u04b3": 5472,
  "\u2581naka": 5473,
  "\u2581\u0438\u0448": 5474,
  "\u2581clearly": 5475,
  "\u03c3\u03b7": 5476,
  "\u2581decided": 5477,
  "ch\u00df": 5478,
  "\u2581names": 5479,
  "\u2581contains": 5480,
  "\u2581strengthen": 5481,
  "ham": 5482,
  "\u2581treatment": 5483,
  "eki": 5484,
  "v\u00e1": 5485,
  "\u2581pagpa": 5486,
  "\u2581prove": 5487,
  "\u10e8": 5488,
  "\u0443\u0434": 5489,
  "\u2581bay": 5490,
  "\u12d8": 5491,
  "\u2581event": 5492,
  "\u2581focus": 5493,
  "lja": 5494,
  "\u2581reasons": 5495,
  "\u2581\u1208": 5496,
  "\u13f2": 5497,
  "\u2581grow": 5498,
  "\u2581\u0cb9": 5499,
  "\u6240": 5500,
  "\u2581nje": 5501,
  "\u2581happiness": 5502,
  "ize": 5503,
  "\u0ca4": 5504,
  "oso": 5505,
  "\u2581\u0d07": 5506,
  "\u0144": 5507,
  "\u2581member": 5508,
  "\u03bf\u03cd": 5509,
  "\u2581throughout": 5510,
  "\u2581Hebrew": 5511,
  "pho": 5512,
  "\u2581favor": 5513,
  "\u2581\u0935\u093f": 5514,
  "\u2581\u04a1\u0430": 5515,
  "\u2581reg": 5516,
  "\u258118:": 5517,
  "king": 5518,
  "\u2581load": 5519,
  "\u2581\u03c4\u03b7\u03bd": 5520,
  "\u0442\u044d": 5521,
  "\u2581\u0625": 5522,
  "\u2581carried": 5523,
  "\u102e": 5524,
  "\u091a\u094d\u092f\u093e": 5525,
  "\u0564": 5526,
  "\u2581develop": 5527,
  "lua": 5528,
  "tari": 5529,
  "\u2581eiloa": 5530,
  "80": 5531,
  "\u0942\u0928": 5532,
  "\u2581President": 5533,
  "\u2581\u101e\u1030": 5534,
  "\u2581advice": 5535,
  "\u2581ene": 5536,
  "\u2581lin": 5537,
  "\u043d\u043e\u0433\u043e": 5538,
  "\u0eb1\u0e99": 5539,
  "\u2581anti": 5540,
  "naki": 5541,
  "\u0ab0\u0acd": 5542,
  "\u2581f\u00fcr": 5543,
  "\u2581\u104a": 5544,
  "\u2581obu": 5545,
  "gere": 5546,
  "\u2581\u0939": 5547,
  "ais": 5548,
  "nyu": 5549,
  "\u06cc\u0645": 5550,
  "\u0a48": 5551,
  "\u2581eta": 5552,
  "ario": 5553,
  "\u2581auf": 5554,
  "\u2581saith": 5555,
  "\u0565\u0581": 5556,
  "\u2581afraid": 5557,
  "\u0631\u0627\u0645": 5558,
  "\u1255": 5559,
  "\u2581Dia": 5560,
  "\u0ba9\u0bcd": 5561,
  "\u2581\u0645\u0648": 5562,
  "eren": 5563,
  "\u044f\u0442": 5564,
  "tala": 5565,
  "\u0c2d": 5566,
  "\u2581transport": 5567,
  "\u2581sorry": 5568,
  "\u2581caused": 5569,
  "\u0aa6": 5570,
  "\u2581activity": 5571,
  "\u00e2n": 5572,
  "\u2581lahi": 5573,
  "\u2581\u0d38": 5574,
  "\u0908": 5575,
  "\u0a1c": 5576,
  "\u1e6d": 5577,
  "\u2581Keep": 5578,
  "\u2581Watchtower": 5579,
  "\u2581bed": 5580,
  "\u0bc8": 5581,
  "\u043c\u0456": 5582,
  "\u2581ground": 5583,
  "\u0440\u0434": 5584,
  "\u0e17": 5585,
  "ayo": 5586,
  "\u2581oti": 5587,
  "\u04b5\u0430": 5588,
  "\u0645\u06c7": 5589,
  "\u2581\u06a9\u06cc\u0627": 5590,
  "\u751f": 5591,
  "\u2581bakal": 5592,
  "\u2581\u043b\u0438": 5593,
  "\u25812004": 5594,
  "\u2581contra": 5595,
  "\u0a9a": 5596,
  "\u2581Op": 5597,
  "\u0442\u04d9\u0440": 5598,
  "\u2581tupu": 5599,
  "\u0bbf": 5600,
  "\u09c2": 5601,
  "\u2581memory": 5602,
  "\u2581sia": 5603,
  "\u2581\u057d": 5604,
  "tica": 5605,
  "\u5b50": 5606,
  "\u2581parts": 5607,
  "ici": 5608,
  "\u2581rela": 5609,
  "\u2581\u067e\u06ce": 5610,
  "\u258170": 5611,
  "\u043f\u0435\u0440": 5612,
  "\u2581spoken": 5613,
  "\u2581reheb": 5614,
  "\u4ed6": 5615,
  "\u2581\u0646\u06c1": 5616,
  "\u2581val": 5617,
  "hom": 5618,
  "\u00ed\u00ed": 5619,
  "mun": 5620,
  "nau": 5621,
  "\u1010\u103a": 5622,
  "sit": 5623,
  "\u2581nr": 5624,
  "\u258120:": 5625,
  "\u0446\u044b": 5626,
  "bb": 5627,
  "\u2581Ji": 5628,
  "ques": 5629,
  "\u0a26\u0a3e": 5630,
  "\u122e": 5631,
  "xu": 5632,
  "\u2581component": 5633,
  "phu": 5634,
  "m\u00e9": 5635,
  "\u2581groups": 5636,
  "\u2581Genesis": 5637,
  "enda": 5638,
  "\u2581Ac": 5639,
  "cri": 5640,
  "\u2581t\u00f4i": 5641,
  "\u2581opp": 5642,
  "\u0924\u093f": 5643,
  "\u10d4\u10e0": 5644,
  "\u2581\u0ca4": 5645,
  "\u092e\u094d": 5646,
  "\u2581aid": 5647,
  "\u2581\u0a05": 5648,
  "\u2581\u04af\u0437": 5649,
  "\u2581girl": 5650,
  "\u2581\u0d2e": 5651,
  "\u0d24\u0d4d": 5652,
  "If": 5653,
  "name": 5654,
  "\u10d4\u10d1\u10d8": 5655,
  "\u0eb7": 5656,
  "laka": 5657,
  "\u2581Des": 5658,
  "\u09a7": 5659,
  "\u044b\u043d\u0430": 5660,
  "\u2581m\u00f3": 5661,
  "\u2581\u0626\u06ce\u0645\u0647": 5662,
  "\u2581Nor": 5663,
  "\u2581prophecy": 5664,
  "\u099a": 5665,
  "\u2581iba": 5666,
  "\u2581served": 5667,
  "\u308a": 5668,
  "\u2581km": 5669,
  "\u2581lei": 5670,
  "\u2581ili": 5671,
  "\u2581seem": 5672,
  "\u2581\u0646\u0649\u06ad": 5673,
  "\u2581(1": 5674,
  "\u05e0": 5675,
  "\u0e08": 5676,
  "\u0414": 5677,
  "tzen": 5678,
  "\u2581ee": 5679,
  "\u2581Eebe": 5680,
  "\u0644\u06cc": 5681,
  "\u043d\u0433": 5682,
  "\u049b\u04d9\u0430": 5683,
  "\u884c": 5684,
  "\u2581\u091c": 5685,
  "\u05e0\u05d9": 5686,
  "\u2581\u09a6": 5687,
  "\u2581judge": 5688,
  "mission": 5689,
  "\u0430\u043b\u0430": 5690,
  "\u05dc\u05e2": 5691,
  "\u00e8l": 5692,
  "\u2581More": 5693,
  "\u2581\u1275": 5694,
  "\u2581\u067e\u0633": 5695,
  "\u2581\u043f\u0440\u0435\u0434": 5696,
  "\u2581\u0633\u0627": 5697,
  "ong": 5698,
  "\u0c46": 5699,
  "\u2581\u0917": 5700,
  "\u2581laws": 5701,
  "60": 5702,
  "\u2581\u014bu": 5703,
  "\u04ad": 5704,
  "\u0c4d": 5705,
  "\u0648\u0639": 5706,
  "\u2581\u1230": 5707,
  "\u2581connection": 5708,
  "\u2581tas": 5709,
  "\u2581\u10e0\u10dd\u10db": 5710,
  "gas": 5711,
  "cie": 5712,
  "\u1015": 5713,
  "\u2581Sta": 5714,
  "\u06a9\u0627\u0631": 5715,
  "CE": 5716,
  "\u2581Instead": 5717,
  "It": 5718,
  "\u2581forgive": 5719,
  "\u2581Biz": 5720,
  "\u25812009": 5721,
  "EU": 5722,
  "\u0aae\u0abe\u0a82": 5723,
  "sent": 5724,
  "\u2581Uni": 5725,
  "rama": 5726,
  "\u2581associated": 5727,
  "\u2581maa": 5728,
  "eti": 5729,
  "\u2581:": 5730,
  "\u0575": 5731,
  "tto": 5732,
  "\u12cd\u1295": 5733,
  "\u2581About": 5734,
  "\u2581idea": 5735,
  "\u2581\u00c7": 5736,
  "serv": 5737,
  "\u2581ngoku": 5738,
  "\u2581bango": 5739,
  "\u12db": 5740,
  "\u2581term": 5741,
  "\u2581alimwi": 5742,
  "ies": 5743,
  "\u258136": 5744,
  "LE": 5745,
  "kwi": 5746,
  "\u2581masa": 5747,
  "\u043c\u043e\u043d": 5748,
  "\u121a": 5749,
  "\u2581Tra": 5750,
  "\u2581daily": 5751,
  "\u09a4\u09bf": 5752,
  "chu": 5753,
  "y\u00e9": 5754,
  "\u2581issues": 5755,
  "\u0cb6": 5756,
  "kati": 5757,
  "l\u00eb": 5758,
  "\u0441\u043a\u0438": 5759,
  "pek": 5760,
  "\u2581rich": 5761,
  "sini": 5762,
  "\u2581k\u00ed": 5763,
  "\u2581une": 5764,
  "\u00b7": 5765,
  "\u2581effective": 5766,
  "\u092d": 5767,
  "end": 5768,
  "\u2581sz": 5769,
  "\u2581\u0627\u0644\u0644\u06c1": 5770,
  "\u00e1s": 5771,
  "\u258122:": 5772,
  "\u0ddd": 5773,
  "\u0aab": 5774,
  "\u2581ransom": 5775,
  "\u2581\u0dc0": 5776,
  "\u2581\u043f\u0430\u0440": 5777,
  "\u102f": 5778,
  "\u2581\u0daf": 5779,
  "\u0ac2": 5780,
  "\u2581ukuba": 5781,
  "\u2581k\u00f3": 5782,
  "tiv": 5783,
  "pit": 5784,
  "\u0dc0\u0dcf": 5785,
  "\u2581ability": 5786,
  "\u2581\u1015": 5787,
  ".1": 5788,
  "s\u00e4": 5789,
  "\u09a8\u09c7": 5790,
  "\u2581maua": 5791,
  "\u1271": 5792,
  "\u2581immediately": 5793,
  "\u2581\u1213": 5794,
  "\u2581offered": 5795,
  "\u2581mid": 5796,
  "it\u00e9": 5797,
  "rar": 5798,
  "n\u0131": 5799,
  "\u2581\u0938\u0902": 5800,
  "This": 5801,
  "\u2581passed": 5802,
  "\u2581lang": 5803,
  "oli": 5804,
  "hand": 5805,
  ");": 5806,
  "\u2581wuxuu": 5807,
  "cal": 5808,
  "\u044d\u044d\u0440": 5809,
  "\u2581\u03ba": 5810,
  "\u258120.": 5811,
  "\u2581blessed": 5812,
  "riki": 5813,
  "\u2581web": 5814,
  "\u2581kri": 5815,
  "\u2581r\u00e8": 5816,
  "\u0b9f\u0bcd\u0b9f": 5817,
  "\u2581beautiful": 5818,
  "\u2581tonu": 5819,
  "fana": 5820,
  "j\u00eb": 5821,
  "\u2581published": 5822,
  "\u0aa8\u0ac0": 5823,
  "\u0aa7": 5824,
  "nika": 5825,
  "\u0435\u043f": 5826,
  "\u2581pala": 5827,
  "\u0634\u06cc": 5828,
  "\u2581\u043f\u0443\u043b": 5829,
  "\u0995\u09cd\u09b7": 5830,
  "\u2581dengan": 5831,
  "\u2581pages": 5832,
  "\u2581Kuma": 5833,
  "\u2581\u062a\u06d5": 5834,
  "nza": 5835,
  "sak": 5836,
  "\u2581promises": 5837,
  "oma": 5838,
  "\u2581waxay": 5839,
  "n\u0101": 5840,
  "\u2581couple": 5841,
  "\u2581entered": 5842,
  "\u2581drive": 5843,
  "\u0c35\u0c3e": 5844,
  "\u2581\u0430\u043d": 5845,
  "\u2581nye": 5846,
  "ht": 5847,
  "\u2581\u0b86": 5848,
  "\u0433\u044c\u044b": 5849,
  "\u2581s\u0103": 5850,
  "\u2581version": 5851,
  "gos": 5852,
  "\u2581Ber": 5853,
  "pot": 5854,
  "\u2581\u0434\u0435\u043f": 5855,
  "\u2581wine": 5856,
  "\u0939\u0940": 5857,
  "\u2581\u0418\u0438\u0441\u0443\u0441": 5858,
  "\u2581t\u00e1": 5859,
  "\u2581\u13a1": 5860,
  "\u2581kara": 5861,
  "\u0447\u0443": 5862,
  "\u2581\u0448\u04d9": 5863,
  "\u2581Folder": 5864,
  "\u2581\u05e7": 5865,
  "\u2581entire": 5866,
  "\u591a": 5867,
  "\u2581saray": 5868,
  "\u06ad": 5869,
  "\u2581bee": 5870,
  "\u2581filled": 5871,
  "\u10d0\u10dc": 5872,
  "say": 5873,
  "\u2581\u0b38": 5874,
  "\u0920": 5875,
  "\u2581mahi": 5876,
  "j\u00fa": 5877,
  "\u0e2b": 5878,
  "\u258145": 5879,
  "\u2581June": 5880,
  "nquil": 5881,
  "\u2581\u12e8\u121a": 5882,
  "\u2581\u0628\u06cc": 5883,
  "TA": 5884,
  "gala": 5885,
  "\u0576\u0565\u0580": 5886,
  "iden": 5887,
  "\u2581\u0628\u064a\u0634": 5888,
  "sum": 5889,
  "\u2581gina": 5890,
  "\u0121i": 5891,
  "\u2581media": 5892,
  "\u2581\u0628\u06be\u06cc": 5893,
  "\u2581Delete": 5894,
  "\u2581\u00fda": 5895,
  "\u2581Web": 5896,
  "\u0441\u043e\u043d": 5897,
  "\u0f54": 5898,
  "\u2581\u041d": 5899,
  "eu": 5900,
  "\u2581High": 5901,
  "\u0561\u0574": 5902,
  "n\u011b": 5903,
  "\u2581implementation": 5904,
  "fia": 5905,
  "\u0649\u062f\u06c7": 5906,
  "\u0434\u0435\u043d": 5907,
  "\u0b39": 5908,
  "\u2581Dis": 5909,
  "\u17a0": 5910,
  "dio": 5911,
  "tai": 5912,
  "zvi": 5913,
  "uru": 5914,
  "\u0eaa": 5915,
  "\u01b0": 5916,
  "\u2581inside": 5917,
  "\u2581Yu": 5918,
  "\u2581\u03bc": 5919,
  "tata": 5920,
  "\u0578\u0582\u0576": 5921,
  "\u2581\u121b": 5922,
  "\u2581violence": 5923,
  "\u0422": 5924,
  "ike": 5925,
  "\u0577": 5926,
  "\u13f1": 5927,
  "\u2581seed": 5928,
  "\u2581sas": 5929,
  "else": 5930,
  "\u2581approach": 5931,
  "\u2581presence": 5932,
  "\u0435\u0448": 5933,
  "anda": 5934,
  "\u04b7": 5935,
  "\u2581f\u00e9": 5936,
  "\u05e8\u05d5": 5937,
  "\u2581chosen": 5938,
  "\u2581York": 5939,
  "\u2581box": 5940,
  "\u2581families": 5941,
  "\u12ee": 5942,
  "nner": 5943,
  "\u2581alt": 5944,
  "ume": 5945,
  "\u2581computer": 5946,
  "\u2581\u0a15": 5947,
  "\u25812005": 5948,
  "\u00fck": 5949,
  "\u2581Thank": 5950,
  "\u2581\u0d35": 5951,
  "GA": 5952,
  "itu": 5953,
  "\u0f51\u0f74": 5954,
  "\u0d38": 5955,
  "\u0a3f\u0a06": 5956,
  "iva": 5957,
  "\u0442\u043e\u0440": 5958,
  "\u258134": 5959,
  "\u2581uye": 5960,
  "\u0ec0": 5961,
  "\u2581m\u00ed": 5962,
  "\u2581\u304c": 5963,
  "\u2581affect": 5964,
  "\u10d5\u10d8": 5965,
  "40": 5966,
  "\u2581~": 5967,
  "\u2581Aku": 5968,
  "\u2581title": 5969,
  "baba": 5970,
  "\u2581ibi": 5971,
  "\u258121.": 5972,
  "\u2581\u06aa": 5973,
  "\u2581qi": 5974,
  "\u0bc0": 5975,
  "\u0644\u06d5": 5976,
  "\u0c97\u0cb3": 5977,
  "\u044f\u0440": 5978,
  "\u0435\u0441": 5979,
  "\u091c\u093c": 5980,
  "\u2581Yehuwa": 5981,
  "\u0f53": 5982,
  "\u2581\u0625\u0644\u0649": 5983,
  "\u012bbas": 5984,
  "\u2581tata": 5985,
  "gri": 5986,
  "himo": 5987,
  "\u2581Act": 5988,
  "g\u00e1": 5989,
  "\u2581inn": 5990,
  "\u2581beyond": 5991,
  "\u2581Ia": 5992,
  "\u2581jan": 5993,
  "\u2581delivered": 5994,
  "unit": 5995,
  "aan": 5996,
  "\u0633\u0644": 5997,
  "\u2581tsa": 5998,
  "\u062f\u0627\u0646": 5999,
  "\u2581alive": 6000,
  "dii": 6001,
  "\u2581Gin": 6002,
  "\u2581opening": 6003,
  "led": 6004,
  "\u00e5r": 6005,
  "\u2581vie": 6006,
  "\u2581white": 6007,
  "god": 6008,
  "\u0435\u0437": 6009,
  "\u2581\u0430\u043b\u0430": 6010,
  "\u2581Display": 6011,
  "\u2581initialise": 6012,
  "\u1798\u17d2": 6013,
  "\u2581pain": 6014,
  "\u0443\u0442": 6015,
  "s\u00e1": 6016,
  "\u00edn": 6017,
  "\u10d1": 6018,
  "\u2581stated": 6019,
  "lio": 6020,
  "\u0f72\u0f0b": 6021,
  "\u2581sar": 6022,
  "\u2581ahau": 6023,
  "\u2581instance": 6024,
  "\u2581kue": 6025,
  "\u0aa3": 6026,
  "eke": 6027,
  "\u2581\u179a\u1794\u179f\u17cb": 6028,
  "\u2581gold": 6029,
  "\u00e4\u00e4": 6030,
  "alo": 6031,
  "\u0c9c": 6032,
  "\u2581pagka": 6033,
  "\u1296": 6034,
  "\u2581\u091a": 6035,
  "\u2581salvation": 6036,
  "\u2581divine": 6037,
  "\u2581copy": 6038,
  "\u2581dzi": 6039,
  "\u0649\u0633\u0649": 6040,
  "\u2581DVD": 6041,
  "\u2581pare": 6042,
  "ova": 6043,
  "\u2581suffer": 6044,
  "ps": 6045,
  "\u2581languages": 6046,
  "\u0c24\u0c3f": 6047,
  "\u056e": 6048,
  "\u2581Canada": 6049,
  "\u2581yoku": 6050,
  "\u10dc\u10d0": 6051,
  "ega": 6052,
  "18": 6053,
  "\u2581conscience": 6054,
  "cla": 6055,
  "\u0645\u0629": 6056,
  "\u2581\u00fc": 6057,
  "\u2581\u00e2": 6058,
  "\u2581jen": 6059,
  "\u2581Still": 6060,
  "\u2581qo": 6061,
  "\u2581thoughts": 6062,
  "\u2581prison": 6063,
  "por": 6064,
  "bah": 6065,
  "\u0ea5": 6066,
  "enti": 6067,
  "\u10e2": 6068,
  "\u2581shalt": 6069,
  "\u2581entre": 6070,
  "\u0117s": 6071,
  "\u2581\u0a35\u0a3f\u0a1a": 6072,
  "\u2581\u3068": 6073,
  "\u2581Iya": 6074,
  "\u2581desires": 6075,
  "\u2581iray": 6076,
  "him": 6077,
  "\u2581\u0c2a\u0c4d\u0c30": 6078,
  "via": 6079,
  "\u2581party": 6080,
  "bus": 6081,
  "\u2581ralal": 6082,
  "\u2581undo": 6083,
  "\u2581options": 6084,
  "pin": 6085,
  "\u2581ry": 6086,
  "\u2581Sie": 6087,
  "\u2581fulfilled": 6088,
  "wie": 6089,
  "\u10d0\u10e0": 6090,
  "\u064a\u0644": 6091,
  "\u0a17": 6092,
  "\u2581rawa": 6093,
  "\u0cad": 6094,
  "\u2581\u041a\u043e": 6095,
  "ologi": 6096,
  "ige": 6097,
  "\u010da": 6098,
  "\u0651": 6099,
  "\u25812003": 6100,
  "\u06cb\u0627": 6101,
  "\u5206": 6102,
  "God": 6103,
  "\u2581plus": 6104,
  "\u2581benefits": 6105,
  "cija": 6106,
  "\u00e1r": 6107,
  "\u2581\u0b05": 6108,
  "aci\u00f3n": 6109,
  "\u067a": 6110,
  "kke": 6111,
  "\u2581olo": 6112,
  "\u2581\u0641\u0631": 6113,
  "\u2581\u010d": 6114,
  "\u2581uit": 6115,
  "\u2581okay": 6116,
  "uga": 6117,
  "ING": 6118,
  "\u2581kuenda": 6119,
  "sat": 6120,
  "\u0441\u043a\u0430": 6121,
  "\u2581Remember": 6122,
  "\u2581n\u00e1\u00e0": 6123,
  "\u0433\u04af\u0439": 6124,
  "lung": 6125,
  "\u2581ila": 6126,
  "p\u00e4": 6127,
  "\u2581pang": 6128,
  "kele": 6129,
  "\u13f0": 6130,
  "\u0a96": 6131,
  "\u2581Us": 6132,
  "\u2581\u0924": 6133,
  "pel": 6134,
  "Do": 6135,
  "llan": 6136,
  "IT": 6137,
  "\u2581guide": 6138,
  "\u2581July": 6139,
  "\u2581animals": 6140,
  "\u043b\u04d1\u0445": 6141,
  "\u0440\u0456": 6142,
  "\u0cc6\u0caf": 6143,
  "\u103b": 6144,
  "\u0497": 6145,
  "\u258116,": 6146,
  "\u043b\u04d7": 6147,
  "\u2581acts": 6148,
  "\u2581\u0db8": 6149,
  "\u2581\u2015": 6150,
  "\u2581Sha": 6151,
  "\u2581concern": 6152,
  "\u0442\u043e\u0439": 6153,
  "\u2581moral": 6154,
  "\u2581resources": 6155,
  "\u09a8\u09be": 6156,
  "vez": 6157,
  "\u121e": 6158,
  "\u25812010": 6159,
  "\u2581anger": 6160,
  "\u2581suka": 6161,
  "\u043b\u0430\u0448": 6162,
  "asyon": 6163,
  "13": 6164,
  "iem": 6165,
  "\u2581Cu": 6166,
  "\u0a88": 6167,
  "iku": 6168,
  "16": 6169,
  "\u2581calls": 6170,
  "\u2581\u0436\u0435": 6171,
  "\u062c\u064a\u06aa\u064a": 6172,
  "rio": 6173,
  "\u13ea": 6174,
  "rit": 6175,
  "\u00fd\u00e4r": 6176,
  "\u2581\u0440\u0430\u0441": 6177,
  "\u0cbf\u0c97\u0cc6": 6178,
  "\u2581inform": 6179,
  "\u2581spe": 6180,
  "\u0256e": 6181,
  "ore": 6182,
  "\u0dc3": 6183,
  "\u00e9s": 6184,
  "bij": 6185,
  "\u2581\u0628\u06ce": 6186,
  "\u0434\u0430\u0433": 6187,
  "\u2581naba": 6188,
  "\u2581f\u00fan": 6189,
  "\u0dd3": 6190,
  "\u2581model": 6191,
  "ros": 6192,
  "\u2581talking": 6193,
  "\u2581described": 6194,
  "ary": 6195,
  "\u2581Mis": 6196,
  "\u1792": 6197,
  "\u1219": 6198,
  "\u2581Surely": 6199,
  "sser": 6200,
  "\u2581awa": 6201,
  "ulu": 6202,
  "\u0631\u0629": 6203,
  "\u2581explained": 6204,
  "\u540c": 6205,
  "\u4e2a": 6206,
  "tava": 6207,
  "dom": 6208,
  "\u2581picture": 6209,
  "\u2581practice": 6210,
  "\u2581measure": 6211,
  "\u610f": 6212,
  "pra": 6213,
  "\u0695\u0647": 6214,
  "\u0561\u057e": 6215,
  "\u057d\u057f": 6216,
  "\u0cb2\u0ccd\u0cb2": 6217,
  "\u2581built": 6218,
  "\u2581Close": 6219,
  "\u0435\u043d\u04d9": 6220,
  "\u2581global": 6221,
  "\u2581Comment": 6222,
  "\u0924\u094d": 6223,
  "\u0646\u064a": 6224,
  "\u2581bag": 6225,
  "\u0a2a": 6226,
  "\u2581included": 6227,
  "\u0db1\u0dca\u0db1": 6228,
  "\u1ebd": 6229,
  "\u2581\u0a2c": 6230,
  "lige": 6231,
  "\u043d\u04d9": 6232,
  "\u2581\u092a\u093e": 6233,
  "\u0430\u0439": 6234,
  "\u2581panel": 6235,
  "\u0454": 6236,
  "RI": 6237,
  "\u2581\u0199a": 6238,
  "\u062f\u0627\u0631": 6239,
  "\u2581Default": 6240,
  "\u0441\u0442\u0432\u043e": 6241,
  "\u2581Ol": 6242,
  "\u2581\u0938\u093e": 6243,
  "\u2581environment": 6244,
  "\u0e48\u0e32": 6245,
  "\u5f97": 6246,
  "\u2581\u0428": 6247,
  "\u2581bya": 6248,
  "\u0627\u06be": 6249,
  "\u2581Sy": 6250,
  "\u0628\u0627\u0648\u0647": 6251,
  "\u2581(2)": 6252,
  "mbre": 6253,
  "nima": 6254,
  "\u2581\u0ca8": 6255,
  "mpe": 6256,
  "nyo": 6257,
  "\u2581\u13f1": 6258,
  "\u2581\u03bf": 6259,
  "\u2581Hebrews": 6260,
  "\u2581\u0565\u0576": 6261,
  "\u2581\u016b": 6262,
  "\u2581Fu": 6263,
  "\u2581Great": 6264,
  "\u0dd2\u0dba": 6265,
  "\u2581\u0425\u0430": 6266,
  "\u2581disk": 6267,
  "\u103d": 6268,
  "\u53bb": 6269,
  "hal": 6270,
  "amh": 6271,
  "\u2581deg": 6272,
  "\u0c23": 6273,
  "\u2581k\u00f6": 6274,
  "\u0dd4": 6275,
  "\u2581\u1796": 6276,
  "atu": 6277,
  "ihi": 6278,
  "RA": 6279,
  "\u2581\u05dc\u05d0": 6280,
  "\u2581\u0642": 6281,
  "\u2581\u0d91": 6282,
  "\u2581taata": 6283,
  "\u2581tot": 6284,
  "\u3068": 6285,
  "\u04d5\u0433": 6286,
  "\u0570": 6287,
  "\u25812002": 6288,
  "\u0eb4": 6289,
  "misa": 6290,
  "leka": 6291,
  "\u0932\u094d": 6292,
  "bia": 6293,
  "\u2581quix": 6294,
  "t\u00e8": 6295,
  "\u2581baptism": 6296,
  "\u2581Nzapa": 6297,
  "\u2581mine": 6298,
  "\u2581kings": 6299,
  "\u2581basa": 6300,
  "\u0693": 6301,
  "\u2581\u00c1": 6302,
  "\u04b5": 6303,
  "\u2581\u0936": 6304,
  "\u2581\u0a1a": 6305,
  "\u09ac\u09c7": 6306,
  "ice": 6307,
  "\u0561\u057d": 6308,
  "\u2581\u0628\u0648\u062f": 6309,
  "ulo": 6310,
  "\u2581\u098f": 6311,
  "\u05e0\u05d5": 6312,
  "\u2581\u12ad": 6313,
  "\u2581\u0e81\u0eb1\u0e9a": 6314,
  "\u0921\u093c": 6315,
  "\u2581\u062a\u0631": 6316,
  "\u2581\u0906\u0923\u093f": 6317,
  "\u2581\u0449\u043e": 6318,
  "dje": 6319,
  "\u0446\u0456": 6320,
  "\u06cc\u062a": 6321,
  "ppa": 6322,
  "\u2581mua": 6323,
  "\u2581Envelope": 6324,
  "\u2581almost": 6325,
  "\u17d2\u179b": 6326,
  "j\u00ed": 6327,
  "neq": 6328,
  "ssu": 6329,
  "\u0c21\u0c41": 6330,
  "\u0d33": 6331,
  "\u2581\u062e\u0627": 6332,
  "\u043b\u0430\u0440\u0433\u0430": 6333,
  "\u2581appear": 6334,
  "\u2581positive": 6335,
  "\u2581top": 6336,
  "kela": 6337,
  "\u041f": 6338,
  "\u2581sick": 6339,
  "\u2581warning": 6340,
  "\u2581bw": 6341,
  "imh": 6342,
  "\u2581\u0ca6": 6343,
  "\u2581Pharaoh": 6344,
  "\u2581behalf": 6345,
  "igh": 6346,
  "sis": 6347,
  "\u2581sir": 6348,
  "\u2581\u017ee": 6349,
  "\u2581\u09ac\u09bf": 6350,
  "\u2581therein": 6351,
  "\u2581reports": 6352,
  "\u2581resolution": 6353,
  "ede": 6354,
  "\u044d\u043c": 6355,
  "rung": 6356,
  "\u2581Window": 6357,
  "\u2581Em": 6358,
  "\u0448\u044b": 6359,
  "\u2581cooperation": 6360,
  "kku": 6361,
  "\u2581precious": 6362,
  "\u2581informa": 6363,
  "\u2581\u306a": 6364,
  "\u0434\u04d5\u0440": 6365,
  "\u2581\u03b3\u03b9\u03b1": 6366,
  "\u2581US": 6367,
  "\u2581tha": 6368,
  "\u2581\u05d0\u05ea": 6369,
  "\u2581wy": 6370,
  "25": 6371,
  "fon": 6372,
  "mel": 6373,
  "ED": 6374,
  "\u0441\u0435\u043d\u0435": 6375,
  "\u2581d\u0259": 6376,
  "De": 6377,
  "\u0c24\u0c4b": 6378,
  "t\u0103": 6379,
  "\u044b\u0441": 6380,
  "\u0423": 6381,
  "\u258113,": 6382,
  "\u2581nature": 6383,
  "\u2581chun": 6384,
  "age": 6385,
  "\u2581Moreover": 6386,
  "\u2581\u092e\u093e": 6387,
  "\u0628\u06ce\u062a": 6388,
  "\u2581\u044d\u0440": 6389,
  "\u2581aon": 6390,
  "tres": 6391,
  "\u2581Bethel": 6392,
  "\u2581mil": 6393,
  "\u0627\u0626\u064a": 6394,
  "\u2581t\u0101": 6395,
  "\u2581Han": 6396,
  "\u2581Scriptural": 6397,
  "\u2581\u0907": 6398,
  "\u2581\u0924\u094d\u092f\u093e": 6399,
  "\u0d24\u0d3f": 6400,
  "IS": 6401,
  "What": 6402,
  "\u2581mara": 6403,
  "aren": 6404,
  "\u2581research": 6405,
  "\u65af": 6406,
  "\u2581Size": 6407,
  "\u0cb5\u0cc1": 6408,
  "\u2581vin": 6409,
  "nger": 6410,
  "\u2581\u092c\u093e": 6411,
  "\u09f1": 6412,
  "\u2581stra": 6413,
  "\u2581break": 6414,
  "rup": 6415,
  "\u2581ajcui\u00df": 6416,
  "\u2581points": 6417,
  "\u062a\u0645": 6418,
  "\u2581auto": 6419,
  "\u2581Page": 6420,
  "\u2581destroy": 6421,
  "hel": 6422,
  "\u0938\u093e": 6423,
  "\u2581boy": 6424,
  "\u2581\u12a8\u121d": 6425,
  "\u2581\u0e84": 6426,
  "\u2581items": 6427,
  "\u2581pioneer": 6428,
  "\u2581adopted": 6429,
  "\u0448\u04d9": 6430,
  "\u2581\u0642\u0649\u0644": 6431,
  "\u2581price": 6432,
  "\u2581watch": 6433,
  "d\u0131": 6434,
  "\u2581showing": 6435,
  "\u2581\u09ac\u09be": 6436,
  "\u0442\u0435\u043b": 6437,
  "ther": 6438,
  "\u2581\u0c15": 6439,
  "\u17bd": 6440,
  "gat": 6441,
  "\u2581t\u00ea": 6442,
  "\u0437\u0435": 6443,
  "\u2581\u0635": 6444,
  "\u2581b\u00ea": 6445,
  "\u0499\u0435": 6446,
  "\u2581speech": 6447,
  "\u2581\u043a\u043e\u043d": 6448,
  "\u0b4b": 6449,
  "\u12ce": 6450,
  "\u2581hati": 6451,
  "\u2581expression": 6452,
  "\u2581\u0438\u0445": 6453,
  "uni": 6454,
  "\u2581prophets": 6455,
  "\u0a1c\u0a3c": 6456,
  "ante": 6457,
  "\u2581church": 6458,
  "tung": 6459,
  "Pa": 6460,
  "\u2581ebi": 6461,
  "\u0146": 6462,
  "ism": 6463,
  "\u2581atoa": 6464,
  "\u2581Republic": 6465,
  "dus": 6466,
  "\u2581tiko": 6467,
  "cial": 6468,
  "\u2581\u0431\u0435\u0437": 6469,
  "\u2581kapav": 6470,
  "\u2581Unknown": 6471,
  "\u2581pat": 6472,
  "\u2581nai": 6473,
  "udi": 6474,
  "\u0a2c": 6475,
  "\u2581\u041c\u0438": 6476,
  "\u2581\u10e1": 6477,
  "\u2581choice": 6478,
  "\u2581ese": 6479,
  "\u2581Germany": 6480,
  "irt": 6481,
  "\u306a": 6482,
  "\u0565\u0576": 6483,
  "\u0646\u062f\u0647": 6484,
  "\u2581chief": 6485,
  "\u2581Message": 6486,
  "\u2581fit": 6487,
  "\u2581Number": 6488,
  "\u2581Pablo": 6489,
  "\u062c\u064a": 6490,
  "\u0137": 6491,
  "\u0431\u0430\u0440": 6492,
  "\u2581\u13a0\u13c2": 6493,
  "\u2581spend": 6494,
  "\u0eb1\u0e94": 6495,
  "kanga": 6496,
  "\u2581\u0436\u0438": 6497,
  "\u2581\u043a\u0435\u043b": 6498,
  "\u042b": 6499,
  "\u2581manner": 6500,
  "\u2581star": 6501,
  "\u2581wives": 6502,
  "\u2581simple": 6503,
  "a\u0142": 6504,
  "elo": 6505,
  "\u0c1c": 6506,
  "\u2581students": 6507,
  "j\u00f3": 6508,
  "\u2581sexual": 6509,
  "\u1ea3": 6510,
  "\u2581recorded": 6511,
  "\u2581roa": 6512,
  "\u04bf\u044b": 6513,
  "\u2581ada": 6514,
  "\u2581sila": 6515,
  "\u05d9\u05e8": 6516,
  "tul": 6517,
  "\u13cd\u13a6": 6518,
  "\u2581\u06cc\u0627": 6519,
  "\u104a": 6520,
  ",\"": 6521,
  "\u0679": 6522,
  "\u2581\u0434\u04d9": 6523,
  "olo": 6524,
  "\u2581content": 6525,
  "stand": 6526,
  "LA": 6527,
  "\u0db4": 6528,
  "\u2581l\u00e1ti": 6529,
  "\u1000": 6530,
  "s\u00e8": 6531,
  "\u043c\u0430\u0442": 6532,
  "cita": 6533,
  "\u2581mati": 6534,
  "\u2581amo": 6535,
  "\u2581\u0c38": 6536,
  "\u2581\u0ead": 6537,
  "\u0d41\u0d28\u0d4d\u0d28": 6538,
  "\u04a9": 6539,
  "\u0686\u0649": 6540,
  "\u2581forget": 6541,
  "Sa": 6542,
  "\u2581hem": 6543,
  "\u043f\u043e\u043b": 6544,
  "\u12d3": 6545,
  "\u2581\u00fd": 6546,
  "\u2581\u12a5\u1295": 6547,
  "\u092e\u093e": 6548,
  "\u2581worked": 6549,
  "\u2581record": 6550,
  "\u0d7c": 6551,
  "\u2581column": 6552,
  "\u2581tsy": 6553,
  "\u0628\u0627\u0631": 6554,
  "dit": 6555,
  "d\u0131r": 6556,
  "sina": 6557,
  "\u2581patient": 6558,
  "\u2581\u1019\u103b\u102c\u1038": 6559,
  "\u2581Au": 6560,
  "\u2581\u0ec0\u0eae\u0eb1\u0e94": 6561,
  "\u0c38\u0c4d": 6562,
  "\u2581\u0c2e": 6563,
  "\u308c": 6564,
  "\u2581finn": 6565,
  "\u2581ani": 6566,
  "\u2581\u05db": 6567,
  "\u06af\u0648": 6568,
  "\u2581below": 6569,
  "\u0a16": 6570,
  "\u2581eme": 6571,
  "\u0627\u0646\u06cc": 6572,
  "\u2581\u0438\u0440": 6573,
  "\u13d8": 6574,
  "\u2581respond": 6575,
  "\u0443\u043f": 6576,
  "l\u012b": 6577,
  "\u2581\u0633\u0627\u0646": 6578,
  "\u2581lai": 6579,
  "\u2581\u0995\u09b0\u09be": 6580,
  "\u2581twa": 6581,
  "\u2581images": 6582,
  "rif": 6583,
  "\u2581\u09aa\u09cd\u09b0": 6584,
  "\u2581October": 6585,
  "\u2581integrity": 6586,
  "\u2581device": 6587,
  "\u04d9\u0442": 6588,
  "\u0b38": 6589,
  "\u2581nem": 6590,
  "\u2581koutou": 6591,
  "\u25812011": 6592,
  "s\u00eb": 6593,
  "\u2581\u0531": 6594,
  "DE": 6595,
  "\u2581birth": 6596,
  "\u2581000": 6597,
  "\u5de5\u4f5c": 6598,
  "\u0e84": 6599,
  "\u2581\u0627\u06cc\u0646": 6600,
  "\u2581hell": 6601,
  "\u2581privilege": 6602,
  "dze": 6603,
  "leni": 6604,
  "sai": 6605,
  "\u10d0\u10e1": 6606,
  "\u2581\u0431\u043e\u0440": 6607,
  "\u2581patients": 6608,
  "\u2581Ny": 6609,
  "\u2581object": 6610,
  "\u2581trade": 6611,
  "\u2581minutes": 6612,
  "\u0d28\u0d4d\u0d28": 6613,
  "\u2581experienced": 6614,
  "To": 6615,
  "\u2581ezali": 6616,
  "\u2581\u0645\u0639": 6617,
  "\u0430\u043f": 6618,
  "\u017ci": 6619,
  "\u044a\u0451\u0441": 6620,
  "kolo": 6621,
  "\u2581\u0aaa": 6622,
  "\u056d": 6623,
  "\u2581quickly": 6624,
  "\u2581\u043e\u0441": 6625,
  "\u2581swa": 6626,
  "\u0eae": 6627,
  "\u5229": 6628,
  "\u0c1f": 6629,
  "\u2581influence": 6630,
  "\u0bbe\u0b95": 6631,
  "\u10dd\u10d1": 6632,
  "kil": 6633,
  "RO": 6634,
  "pera": 6635,
  "\u2581tali": 6636,
  "\u2581tao": 6637,
  "\u2581\u0438\u0442": 6638,
  "ash": 6639,
  "\u2581\u0bae\u0bc1": 6640,
  "\u2581deliver": 6641,
  "\u2581destruction": 6642,
  "\u2581\u0442\u0443\u0440": 6643,
  "\u2581Jeova": 6644,
  "lash": 6645,
  "\u00e9n": 6646,
  "\u2581original": 6647,
  "mala": 6648,
  "\u2581Cho": 6649,
  "\u2581\u0161": 6650,
  "sinnaa": 6651,
  "\u2581Give": 6652,
  "cc": 6653,
  "\u03bf\u03bd": 6654,
  "\u258190": 6655,
  "\u25812)": 6656,
  "\u2581seems": 6657,
  "\u2581ole": 6658,
  "\u2581response": 6659,
  "ule": 6660,
  "\u0eb8": 6661,
  "\u0b36": 6662,
  "l\u00fa": 6663,
  "\u2581sau": 6664,
  "\u0127a": 6665,
  "\u0628\u0627\u0646": 6666,
  "\u2581vital": 6667,
  "\u2581\u1363": 6668,
  "\u0438\u0445": 6669,
  "\u0646\u062f\u0699": 6670,
  "\u2581gro": 6671,
  "\u0bb1\u0bcd\u0bb1": 6672,
  "tang": 6673,
  "\u0434\u0438\u043d": 6674,
  "\u0571": 6675,
  "c\u00ed": 6676,
  "\u2581sobre": 6677,
  "\u09b7": 6678,
  "\u13d4": 6679,
  "\u2581Table": 6680,
  "\u2581\u0628\u062f": 6681,
  "igen": 6682,
  "j\u00e1": 6683,
  "\u0cbf\u0caf": 6684,
  "\u0442\u04d1\u0440": 6685,
  "\u2581\u0441\u044b": 6686,
  "\u2581\u0e81": 6687,
  "\u2581sus": 6688,
  "\u0438\u0438": 6689,
  "\u2581fia": 6690,
  "b\u0259": 6691,
  "tuu": 6692,
  "dwe": 6693,
  "\u2581exercise": 6694,
  "\u0438\u043d\u0438": 6695,
  "vor": 6696,
  "\u2581discipline": 6697,
  "pur": 6698,
  "\u06be\u0627": 6699,
  "\u2581Jeremiah": 6700,
  "\u2581\u067f\u064a": 6701,
  "\u2581nel": 6702,
  "\u064b": 6703,
  "\u1000\u102d\u102f": 6704,
  "\u2581Y\u00e9huwa": 6705,
  "\u2581\u1290": 6706,
  "\u2581Non": 6707,
  "git": 6708,
  "\u2581mbo": 6709,
  "\u2581Jewish": 6710,
  "\u13b4": 6711,
  "\u2581prop": 6712,
  "\u2581\u09af": 6713,
  "lles": 6714,
  "\u2581greatest": 6715,
  "\u2581\u0442\u0430\u043a": 6716,
  "\u2581aya": 6717,
  "\u0dca": 6718,
  "\u2581\u0905\u0938": 6719,
  "\u2581Th": 6720,
  "\u2581Zo": 6721,
  "\u2581equal": 6722,
  "\u2581Before": 6723,
  "\u2581South": 6724,
  "\u2581leyi": 6725,
  "\u2581Roman": 6726,
  "\u2581proper": 6727,
  "\u2581Another": 6728,
  "\u25812001": 6729,
  "lip": 6730,
  "\u2581ale": 6731,
  "\u2581\u03c0\u03c1\u03bf": 6732,
  "\u2581former": 6733,
  "\u2581\u04e9\u0447\u0435\u043d": 6734,
  "\u0631\u0627\u062a": 6735,
  "sang": 6736,
  "\u2581encourage": 6737,
  "\u3060": 6738,
  "\u06ad\u0644\u0627\u0631": 6739,
  "\u0626\u0627": 6740,
  "gad": 6741,
  "zan": 6742,
  "sus": 6743,
  "\u2581rejoice": 6744,
  "\u2581\u0414\u043e": 6745,
  "\u2581nuan": 6746,
  "\u2581kandi": 6747,
  "\u0430\u043a": 6748,
  "\u2581element": 6749,
  "omu": 6750,
  "vat": 6751,
  "\u2581produ": 6752,
  "\u2581stood": 6753,
  "\u2581\u0439\u04d5": 6754,
  "\u2581helping": 6755,
  "p\u00e9": 6756,
  "\u2581Io": 6757,
  "\u2581courage": 6758,
  "\u1201": 6759,
  "\u2581completely": 6760,
  "\u2581January": 6761,
  "\u2581March": 6762,
  "\u2581g\u0127all": 6763,
  "\u1367": 6764,
  "\u2581directory": 6765,
  "\u2581True": 6766,
  "\u062f\u0629": 6767,
  "\u2581seeking": 6768,
  "\u2581leswi": 6769,
  "\u2581nyen": 6770,
  "gut": 6771,
  "\u2581eh": 6772,
  "\u2581\u0431\u045e\u043b": 6773,
  "\u2581iku": 6774,
  "SE": 6775,
  "\u2581ann": 6776,
  "\u2581agi": 6777,
  "\u2581als": 6778,
  "prav": 6779,
  "\u2581hor": 6780,
  "\u2581goes": 6781,
  "k\u00f9": 6782,
  "\u2581\u0626\u06c8\u0686\u06c8\u0646": 6783,
  "\u2581town": 6784,
  "\u0642\u06c7": 6785,
  "\u2581background": 6786,
  "ella": 6787,
  "\u0432\u0435\u0442": 6788,
  "\u2581bli": 6789,
  "\u0a35\u0a3e": 6790,
  "\u2581\u0995\u09f0\u09be": 6791,
  "\u0eb4\u0e94": 6792,
  "\u0626\u0649": 6793,
  "\u2581della": 6794,
  "\u0993": 6795,
  "fika": 6796,
  "\u17c4": 6797,
  "\u015fi": 6798,
  "\u2581xo": 6799,
  "\u043a\u0430\u0437\u0430": 6800,
  "\u0438\u0434\u0430": 6801,
  "tun": 6802,
  "\u2581earlier": 6803,
  "\u2581steps": 6804,
  "papa": 6805,
  "\u0562": 6806,
  "sty": 6807,
  "\u13a5": 6808,
  "pela": 6809,
  "\u2581\u041d\u043e": 6810,
  "\u2581expect": 6811,
  "\u2581utai": 6812,
  "o\u00f9": 6813,
  "\u2581\u104f": 6814,
  "\u0430\u043d\u044b": 6815,
  "\u0eb9": 6816,
  "turi": 6817,
  "\u2581sto": 6818,
  "\u2581USA": 6819,
  "\u2581nona": 6820,
  "\u2581uu": 6821,
  "rant": 6822,
  "\u2581congregations": 6823,
  "\u2581aso": 6824,
  "\u9019": 6825,
  "onan": 6826,
  "\u0bc2": 6827,
  "iste": 6828,
  "\u2581w\u00e0": 6829,
  "\u2581hari": 6830,
  "\u2581step": 6831,
  "\u0939\u093e": 6832,
  "\u2581\u10d2\u10d0": 6833,
  "lich": 6834,
  "\u2581Aaron": 6835,
  "\u6027": 6836,
  "\u2581September": 6837,
  "\u062c\u0644": 6838,
  "bas": 6839,
  "\u10d8\u10d7": 6840,
  "\u2581loss": 6841,
  "\u0443\u044b": 6842,
  "kina": 6843,
  "\u0e30": 6844,
  "\u2581writing": 6845,
  "\u2581private": 6846,
  "ndar": 6847,
  "\u2581\u0645\u0647": 6848,
  "\u2581Bondye": 6849,
  "AT": 6850,
  "\u2581\u1791": 6851,
  "bay": 6852,
  "\u672c": 6853,
  "\u101d": 6854,
  "dala": 6855,
  "SA": 6856,
  "\u2581endure": 6857,
  "\u2581forma": 6858,
  "\u1014": 6859,
  "rk": 6860,
  "\u2581Eve": 6861,
  "GenericName": 6862,
  "\u25811)": 6863,
  "\u2581accounts": 6864,
  "\u2581s\u00e5": 6865,
  "\u2581\u3067": 6866,
  "sig": 6867,
  "\u2581Messenger": 6868,
  "\u2581Life": 6869,
  "\u2581\u12c8": 6870,
  "\u2581\u062c\u0646\u06be\u0646": 6871,
  "\u2581\u0574\u056b": 6872,
  "\u2581Yeesu": 6873,
  "\u2581Hav": 6874,
  "\u043c\u0435\u0440": 6875,
  "\u09f0\u09bf": 6876,
  "\u2581responsible": 6877,
  "\u1000\u103c": 6878,
  "\u2581importance": 6879,
  "\u2581\u201c%": 6880,
  "MP": 6881,
  "\u2581tongana": 6882,
  "\u258117,": 6883,
  "\u2581Change": 6884,
  "\u0433\u044b": 6885,
  "\u1031\u102c\u1000\u103a": 6886,
  "\u0c30\u0c3e": 6887,
  "\u2581tag": 6888,
  "khulu": 6889,
  "\u2581low": 6890,
  "\u10e6": 6891,
  "\u00ef": 6892,
  "\u2581nj\u00eb": 6893,
  "\u2581select": 6894,
  "\u09b0\u09be": 6895,
  "\u2581\u0426": 6896,
  "\u2581\u0b15": 6897,
  "\u2581\u062a\u06c6": 6898,
  "14": 6899,
  "vad": 6900,
  "\u2581running": 6901,
  "\u0142o": 6902,
  "\u2581mat": 6903,
  "\u1004\u103a\u1038": 6904,
  "\u2581firm": 6905,
  "\u04e1\u0430": 6906,
  "\u064a\u0648\u0646": 6907,
  "oga": 6908,
  "hua": 6909,
  "\u2581minister": 6910,
  "\u2581weight": 6911,
  "\u10d3": 6912,
  "wr": 6913,
  "\u056b\u0581": 6914,
  "\u2581c\u1ee7a": 6915,
  "\u2581kata": 6916,
  "\u0dba\u0dcf": 6917,
  "\u2581iloa": 6918,
  "\u2581standing": 6919,
  "m\u00ed": 6920,
  "\u2581\u0928\u093f": 6921,
  "\u2581qua": 6922,
  "\u2581Ata": 6923,
  "\u2581provision": 6924,
  "SI": 6925,
  "\u0499\u04d9": 6926,
  "\u043b\u044d\u043d": 6927,
  "tou": 6928,
  "\u2581ass": 6929,
  "laga": 6930,
  "\u064a\u062f": 6931,
  "\u0c9a": 6932,
  "\u2581\u13a4\u13c2": 6933,
  "rhe": 6934,
  "\u0442\u0435\u043d": 6935,
  "\u0192e": 6936,
  "\u2581Invalid": 6937,
  "\u0411": 6938,
  "\u2581knowing": 6939,
  "\u2581mon": 6940,
  "jem": 6941,
  "\u2581trials": 6942,
  "\u2581quixye": 6943,
  "\u2581\u10d4": 6944,
  "\u2581(1)": 6945,
  "uh": 6946,
  "eur": 6947,
  "\u0645\u06cc": 6948,
  "\u2581terms": 6949,
  "\u2581basi": 6950,
  "\u2581\u13a5\u13dd": 6951,
  "Me": 6952,
  "\u2581\u0645\u06c7": 6953,
  "\u2581exp": 6954,
  "\u2581dei": 6955,
  "\u2581evening": 6956,
  "\u2581\u0989": 6957,
  "\u2581k\u0101": 6958,
  "\u2581desktop": 6959,
  "\u2581sleep": 6960,
  "\u2581Che": 6961,
  "ngon": 6962,
  "\u05d5\u05e8": 6963,
  "ami": 6964,
  "\u2581\u3057": 6965,
  "imi": 6966,
  "\u2581Behold": 6967,
  "\u2581humble": 6968,
  "uit": 6969,
  "\u2581chapter": 6970,
  "\u2581\u049b\u0438\u043b": 6971,
  "\u2581drug": 6972,
  "oko": 6973,
  "Mo": 6974,
  ">>san_Deva<<": 6975,
  "nci": 6976,
  "\u2581\u13da": 6977,
  "\u0256o": 6978,
  "ador": 6979,
  "\u30f3": 6980,
  "\u2581improve": 6981,
  "\u2581\u0634\u062f": 6982,
  "\u2581color": 6983,
  "\u2581Make": 6984,
  "\u52a0": 6985,
  "amu": 6986,
  "dal": 6987,
  "\u2581col": 6988,
  "yd": 6989,
  "\u0442\u0435\u043b\u044c": 6990,
  "\u2581answers": 6991,
  "\u258123.": 6992,
  "\u2581Watch": 6993,
  "\u2581assistance": 6994,
  "ica": 6995,
  "\u1261": 6996,
  "\u2581fin": 6997,
  "p\u00e1": 6998,
  "risi": 6999,
  "\u2581yara": 7000,
  "n\u00ec": 7001,
  "\u2581operation": 7002,
  "\u0433\u0456": 7003,
  "\u2581inc": 7004,
  "\u2581m\u00e5": 7005,
  "\u2581reference": 7006,
  "\u2581pli": 7007,
  "\u0d32\u0d4d\u0d32": 7008,
  "\u2581looked": 7009,
  "less": 7010,
  "\u2581major": 7011,
  "\u2581\u068f": 7012,
  "\u2581reira": 7013,
  "\u2581\u04d8": 7014,
  "\u0cb5\u0ca8\u0ccd\u0ca8\u0cc1": 7015,
  "ated": 7016,
  "\u3067": 7017,
  "\u2581\u0628\u0646": 7018,
  "\u2581camp": 7019,
  "\u2581Also": 7020,
  "\u2581interests": 7021,
  "\u0438\u0434": 7022,
  "\u2581\u0c07": 7023,
  "\u258119,": 7024,
  "\u2581\u055d": 7025,
  "\u2581Jewova": 7026,
  "\u2581pati": 7027,
  "\u2581\u06af\u0627": 7028,
  "\u2581niya": 7029,
  "\u0445\u044b": 7030,
  "\u06a9\u0627\u0646\u06cc": 7031,
  "\u17c9": 7032,
  "\u2581wie": 7033,
  "\u062c\u0647": 7034,
  "zon": 7035,
  "\u2581note": 7036,
  "\u0440\u0430\u043a": 7037,
  "\u2581Line": 7038,
  "ato": 7039,
  "ous": 7040,
  "\u2581Colour": 7041,
  "\u2581\u0628\u0627\u0631": 7042,
  "\u2581practical": 7043,
  "\u043d\u04d7": 7044,
  "\u0b5f": 7045,
  "\u03b5\u03c2": 7046,
  "gia": 7047,
  "\u2581additional": 7048,
  "kani": 7049,
  "\u2581\u043a\u0443\u0440": 7050,
  "ls": 7051,
  "too": 7052,
  "\u2581riki": 7053,
  "\u0430\u0433": 7054,
  "\u2581ju\u00f5n": 7055,
  "\u2581kuli": 7056,
  "mpli": 7057,
  "\u017ce": 7058,
  "\u2581pressure": 7059,
  "bru": 7060,
  "pas": 7061,
  "\u2581Oo": 7062,
  "\u0bb0\u0bc1": 7063,
  "bang": 7064,
  "\u2581\u0627\u0644\u0633": 7065,
  "\u044b\u0445": 7066,
  "\u0d36": 7067,
  "\u2581\u0160": 7068,
  "sze": 7069,
  "\u2581gods": 7070,
  "\u064a\u0621": 7071,
  "\u2581chiru": 7072,
  "\u2581dre": 7073,
  "\u0431\u04d9": 7074,
  "j\u0105": 7075,
  "hold": 7076,
  "\u2581learning": 7077,
  "d\u00f3": 7078,
  "\u2581\u1787": 7079,
  "\u2581probably": 7080,
  "\u2581cover": 7081,
  "\u2581Files": 7082,
  "\u0d3f\u0d15\u0d4d\u0d15": 7083,
  "\u2581bra": 7084,
  "\u2581\u0442\u0430\u0442\u0430": 7085,
  "ori": 7086,
  "\u2581Que": 7087,
  "anta": 7088,
  "\u2581ami": 7089,
  "\u2581memb": 7090,
  "lika": 7091,
  "sana": 7092,
  "\u2581bin": 7093,
  "\u2581\u1798\u17b6\u1793": 7094,
  "\u2581express": 7095,
  "dro": 7096,
  "\u2013": 7097,
  "\u2581Aus": 7098,
  "\u2581\u0421\u0430": 7099,
  "\u2581\u00fa": 7100,
  "\u011fa": 7101,
  "\u2581\u09b8\u0982": 7102,
  "\u2581Kom": 7103,
  "\u2581\u13a8\u13d2\u13a2": 7104,
  "\u2581appreciation": 7105,
  "kp\u0254": 7106,
  "\u2581April": 7107,
  "\u2581\u0634\u0645\u0627": 7108,
  "\u0c82\u0ca6": 7109,
  "\u2581\u0443\u044b\u0439": 7110,
  "\u2581exists": 7111,
  "\u2581cara": 7112,
  "\u2581meg": 7113,
  "\u2581jew": 7114,
  "\u2581ahead": 7115,
  "piri": 7116,
  "\u2581increased": 7117,
  "Ko": 7118,
  "\u0917\u093e": 7119,
  "ndre": 7120,
  "\u2581\u092b": 7121,
  "\u2581karo": 7122,
  "kit": 7123,
  "\u2581lack": 7124,
  "onse": 7125,
  "kama": 7126,
  "\u0acd\u0aaf": 7127,
  "zel": 7128,
  "\u12ca": 7129,
  "Stock": 7130,
  "\u06ab": 7131,
  "\u0dd2": 7132,
  "\u2581spread": 7133,
  "nju": 7134,
  "\u2581network": 7135,
  "TE": 7136,
  "\u0f63": 7137,
  "New": 7138,
  "\u2581Pen": 7139,
  "\u6210": 7140,
  "\u0f42\u0f66": 7141,
  "\u2581\u043a\u04e9\u0440": 7142,
  "\u2581kal": 7143,
  "\u2581euro": 7144,
  "\u0430\u04b3": 7145,
  "\u0cbe\u0ca6": 7146,
  "\u09a8\u09bf": 7147,
  "\u09b2\u09be": 7148,
  "\u60f3": 7149,
  "ering": 7150,
  "\u2581\u1e5aebbi": 7151,
  "\u2581fre": 7152,
  "gge": 7153,
  "\u6216": 7154,
  "bon": 7155,
  "\u1243": 7156,
  "\u0107i": 7157,
  "kli": 7158,
  "\u0bbe\u0ba9": 7159,
  "\u2581bare": 7160,
  "\u2581qai": 7161,
  "\u2581lwa": 7162,
  "wara": 7163,
  "\u2581\u0628\u0649\u0631": 7164,
  "\u0eb2\u0e8d": 7165,
  "\u1338": 7166,
  "\u0c15\u0c4d": 7167,
  "\u2581jej": 7168,
  "\u2581exist": 7169,
  "misi": 7170,
  "\u2581\u0627\u0644\u0628": 7171,
  "\u2581oil": 7172,
  "\u2581Xa": 7173,
  "\u0627\u0626\u064a\u0646": 7174,
  "\u13cd\u13d3": 7175,
  "enza": 7176,
  "\u4ec0\u4e48": 7177,
  "\u2581\u0448\u0442\u043e": 7178,
  "\u1038": 7179,
  "\u2581\u015f": 7180,
  "\u0b9f\u0bc1": 7181,
  "\u2581\u092d": 7182,
  "\u0b33": 7183,
  "\u2581riq\u00dfuin": 7184,
  "\u0ba3": 7185,
  "\u2581sha": 7186,
  "\u2581\u043e\u0440": 7187,
  "\u10d4\u10d7": 7188,
  "\u0cb7": 7189,
  "lje": 7190,
  "klu": 7191,
  "t\u00e3": 7192,
  "\u101e\u1031\u102c": 7193,
  "\u2581\u043a\u0430\u0439": 7194,
  "\u2581theme": 7195,
  "\u2581setting": 7196,
  "zza": 7197,
  "pang": 7198,
  "\u4e5f": 7199,
  "une": 7200,
  "\u0441\u0442\u0432\u0430": 7201,
  "\u09b2\u09bf": 7202,
  "\u01e7": 7203,
  "baka": 7204,
  "\u25812012": 7205,
  "\u2581hast": 7206,
  "tsu": 7207,
  "sing": 7208,
  "\u2581\u0909\u0938": 7209,
  "a\u00f1": 7210,
  "\u2581io": 7211,
  "\u2581Help": 7212,
  "\u2581\u12a5\u1272": 7213,
  "\u2581studies": 7214,
  "\u2581effects": 7215,
  "TI": 7216,
  "\u2581screen": 7217,
  "ET": 7218,
  "\u2581\u0c35": 7219,
  "\u0936\u093e": 7220,
  "\u04b3\u04d9\u0430": 7221,
  "\u2581towards": 7222,
  "\u2581refer": 7223,
  "ME": 7224,
  "isti": 7225,
  "\u011f\u0131": 7226,
  "uf": 7227,
  "\u2581sometimes": 7228,
  "\u2581mighty": 7229,
  "\u2581sword": 7230,
  "\u2581prie": 7231,
  "\u0bb1": 7232,
  "sca": 7233,
  "\u0d3f\u0d2f": 7234,
  "\u2581society": 7235,
  "kau": 7236,
  "liga": 7237,
  "\u1005\u103a": 7238,
  "\u2581\u0bb5\u0bbf": 7239,
  "\u2581\u1290\u12cd": 7240,
  "\u0cb8\u0ccd": 7241,
  "\u2581lose": 7242,
  "\u0947\u0902": 7243,
  "\u2581quin": 7244,
  "bwi": 7245,
  "\u0435\u0440\u0433\u04d9": 7246,
  "pai": 7247,
  "\u90fd": 7248,
  "\u099b": 7249,
  "\u13f0\u13c3": 7250,
  "\u2581kudu": 7251,
  "\u2581\u0442\u0443\u0440\u0433\u0430\u043d": 7252,
  "\u043e\u0437": 7253,
  "\u3089": 7254,
  "\u0499\u044b": 7255,
  "\u2581brings": 7256,
  "\u2581\u0642\u0648\u0645": 7257,
  "\u0f0b\u0f54": 7258,
  "\u2581aware": 7259,
  "\u2581komp": 7260,
  "\u2581\u0626\u06ce\u0648\u0647": 7261,
  "lau": 7262,
  "\u043d\u043e\u0439": 7263,
  "\u2581Print": 7264,
  "\u2581safe": 7265,
  "sas": 7266,
  "\u0b4d\u0b5f": 7267,
  "\u2581mani": 7268,
  "lap": 7269,
  "\u2581s\u1ecd": 7270,
  "\u0632\u0627": 7271,
  "\u2581safety": 7272,
  "\u2581ayo": 7273,
  "\u2581basic": 7274,
  "\u2581pure": 7275,
  "rian": 7276,
  "\u2581purposes": 7277,
  "\u0303": 7278,
  "\u2581=": 7279,
  "\u2581\u06af\u06d2": 7280,
  "\u13ea\u13ce": 7281,
  "\u0445\u0443": 7282,
  "\u2581oli": 7283,
  "\u0e08\u0e30": 7284,
  "\u2581proved": 7285,
  "\u258138": 7286,
  "bbi": 7287,
  "\u2581\u0437\u043d\u0430": 7288,
  "\u0a70": 7289,
  "r\u00e0": 7290,
  "\u2581m\u00eb": 7291,
  "\u2581Tim": 7292,
  "nh": 7293,
  "\u2581Kristian": 7294,
  "\u2581realize": 7295,
  "\u2581cikin": 7296,
  "\u2581invited": 7297,
  "\u2581aomata": 7298,
  "\u2581kre": 7299,
  "\u2581Musa": 7300,
  "\u2581\u0438\u043c\u0430": 7301,
  "\u2581\u0ea5": 7302,
  "\u0c2f\u0c41": 7303,
  "ial": 7304,
  "\u2581sc": 7305,
  "EG": 7306,
  "\u2581dwell": 7307,
  "\u2581community": 7308,
  "\u2581bug": 7309,
  "\u2581begin": 7310,
  "\u258180": 7311,
  "\u2581\u0256e": 7312,
  "\u2581Nya": 7313,
  "\u2581valid": 7314,
  "idae": 7315,
  "\u2581thu": 7316,
  "kwu": 7317,
  "\u4e8e": 7318,
  "\u2581dalam": 7319,
  "nka": 7320,
  "\u2581\u0442\u04d9": 7321,
  "\u2581win": 7322,
  "\u2581\u06af\u0647": 7323,
  "\u10e0\u10d0": 7324,
  "\u2581\u0442\u04d1": 7325,
  "\u2581Saksi": 7326,
  "\u2581selection": 7327,
  "\u2581\u0c0e": 7328,
  "ius": 7329,
  "\u2581reflect": 7330,
  "\u2581ik": 7331,
  "pos": 7332,
  "\u2581bana": 7333,
  "\u0e9e": 7334,
  "\u2581Anij": 7335,
  "qe": 7336,
  "sek": 7337,
  "\u2581aha": 7338,
  "\u2581goal": 7339,
  "\u0649\u06ad\u0644\u0627\u0631": 7340,
  "\u2581\u0442\u0443\u0440\u0430\u0440": 7341,
  "\u25812013": 7342,
  "\u2581\u0e99\u0eb1\u0ec9\u0e99": 7343,
  "\u2581\u0430\u0441": 7344,
  "\u2581biso": 7345,
  "\u4e3b": 7346,
  "\u2581godly": 7347,
  "rei": 7348,
  "\u2581Auto": 7349,
  "\u0561\u056f\u0561\u0576": 7350,
  "\u0e41": 7351,
  "\u2581manga": 7352,
  "tz\u00df": 7353,
  "\u2581EUR": 7354,
  "\u0648\u062a": 7355,
  "maki": 7356,
  "\u2581\u0caa\u0ccd\u0cb0": 7357,
  "\u2581Enable": 7358,
  "\u2581\u0628\u06a9\u0647": 7359,
  "\u0691": 7360,
  "\u0cbe\u0c97": 7361,
  "ging": 7362,
  "\u2581lia": 7363,
  "\u2581\u055e": 7364,
  "\u2581systems": 7365,
  "\u0aa4\u0abe": 7366,
  "\u2581entry": 7367,
  "\u062f\u0631": 7368,
  "17": 7369,
  "\u2581ikai": 7370,
  "\u2581disp": 7371,
  "\u0437\u043e": 7372,
  "\u2581t\u00e9": 7373,
  "\u0644\u0629": 7374,
  "\u06ce\u06a9\u06cc": 7375,
  "\u2581interested": 7376,
  "ase": 7377,
  "\u2581\u03c0\u03bf\u03c5": 7378,
  "naan": 7379,
  "\u0b9f\u0bbf": 7380,
  "\u2581Next": 7381,
  "\u1019\u103a\u1038": 7382,
  "\u2581Pag": 7383,
  "\u2581prayed": 7384,
  "\u2581nama": 7385,
  "mite": 7386,
  "\u2581\u05d3\u05e2\u05e8": 7387,
  "\u2581eius": 7388,
  "\u2581faire": 7389,
  "\u2581\u041d\u0438": 7390,
  "\u2581kasi": 7391,
  "\u2581vel": 7392,
  "dhi": 7393,
  "y\u00e8": 7394,
  "\u2581sol": 7395,
  "\u2581Jiih\u00f3vah": 7396,
  "sco": 7397,
  "\u2581bat": 7398,
  "\u2581ike": 7399,
  "IM": 7400,
  "\u2581thousands": 7401,
  "yag": 7402,
  "\u0633\u062a\u0647": 7403,
  "\u2581ino": 7404,
  "tivo": 7405,
  "sik": 7406,
  "\u2581\u0445\u04d1": 7407,
  "\u2581l\u00e2": 7408,
  "riri": 7409,
  "\u2581\u0441\u0442\u0430": 7410,
  "\u2581dili": 7411,
  "\u2581Sal": 7412,
  "\u10d4\u10d1\u10d8\u10e1": 7413,
  "\u2581seeing": 7414,
  "\u2581bere": 7415,
  "\u2581\u13a4\u13be": 7416,
  "\u0442\u0438\u0432": 7417,
  "ema": 7418,
  "\u2581articles": 7419,
  "\u2581Start": 7420,
  "\u2581gathered": 7421,
  "\u2581teie": 7422,
  "\u0b27": 7423,
  "pati": 7424,
  "\u0434\u043e\u043d": 7425,
  "t\u0173": 7426,
  "\u2581fua": 7427,
  "\u062a\u0649\u0646": 7428,
  "\u2581g\u00f6r": 7429,
  "\u2581saya": 7430,
  "\u2581\u0628\u0631\u0627\u06cc": 7431,
  "\u0430\u043b\u044c": 7432,
  "niya": 7433,
  "\u2581\u044d\u0448": 7434,
  "\u2581+": 7435,
  "entes": 7436,
  "\u2581front": 7437,
  "mark": 7438,
  "\u099a\u09bf": 7439,
  "\u2581Rom": 7440,
  "\u2581kol\u0101": 7441,
  "\u0b30\u0b3f": 7442,
  "\u2581\u10d0\u10e0": 7443,
  "\u2581vun": 7444,
  "Da": 7445,
  "\u0d34": 7446,
  "\u1001": 7447,
  "\u0d1f\u0d4d\u0d1f": 7448,
  "\u2581reported": 7449,
  "\u2581Kan": 7450,
  "\u2581story": 7451,
  "\u0c4a": 7452,
  "\u258137": 7453,
  "\u0f60\u0f72\u0f0b": 7454,
  "\u0a1a": 7455,
  "\u2581bara": 7456,
  "nam": 7457,
  "\u2581\u0a26\u0a3e": 7458,
  "\u12b8": 7459,
  "\u2581\u0a8f": 7460,
  "\u2581\u120d": 7461,
  "\u2581Last": 7462,
  "\u2581\u0263er": 7463,
  "\u2581\u0c24": 7464,
  "\u2581nun": 7465,
  "\u2581forgiveness": 7466,
  "\u2581Government": 7467,
  "\u2581tout": 7468,
  "\u3093": 7469,
  "\u2581Jesu": 7470,
  "\u0441\u0442\u0432": 7471,
  "\u021bi": 7472,
  "ctor": 7473,
  "\u2581\u064a\u0627": 7474,
  "\u0442\u0438\u0440": 7475,
  "\u80fd": 7476,
  "\u2581Decision": 7477,
  "\u2581workers": 7478,
  "\u2581raz": 7479,
  "\u2581izi": 7480,
  "\u13cd": 7481,
  "\u2581Tusi": 7482,
  "\u2581Find": 7483,
  "erunt": 7484,
  "ci\u00f3": 7485,
  "\u2581Tab": 7486,
  "\u2581\u10ec": 7487,
  "gne": 7488,
  "nel": 7489,
  "\u2581settings": 7490,
  "\u2581rate": 7491,
  "\u0448\u0442\u0430": 7492,
  "\u2581November": 7493,
  "\u2581prepare": 7494,
  "\u062f\u0645": 7495,
  "lite": 7496,
  "\u0db6": 7497,
  "\u2581leis": 7498,
  "\u2581ud": 7499,
  "apa": 7500,
  "try": 7501,
  "\u2581ord": 7502,
  "z\u0131": 7503,
  "\u00bb,": 7504,
  "\u2581Court": 7505,
  "\u015fa": 7506,
  "\u0bb0\u0bbf": 7507,
  "xt": 7508,
  "fn": 7509,
  "\u0434\u044b\u043d": 7510,
  "\u2581tabata": 7511,
  "\u2581goals": 7512,
  "\u2581\u09aa\u09be": 7513,
  "\u2581appreciate": 7514,
  "\u2581production": 7515,
  "\u0b40": 7516,
  "\u2581bet": 7517,
  "\u2581nach": 7518,
  "jy": 7519,
  "\u2581discuss": 7520,
  "\u2581asking": 7521,
  "\u2581nji": 7522,
  "\u2581zvi": 7523,
  "\u2581walking": 7524,
  "\u2581xuku": 7525,
  "vers": 7526,
  "\u00f4l": 7527,
  "\u0928\u0940": 7528,
  "ndaka": 7529,
  "\u2581regional": 7530,
  "\u2581\u00d6": 7531,
  "\u2581Les": 7532,
  "\u2581worldwide": 7533,
  "\u2581cap": 7534,
  "\u0576\u0579": 7535,
  "\u2581p\u0113": 7536,
  "\u13e4": 7537,
  "zera": 7538,
  "\u0644\u0648": 7539,
  "\u2581\u0ec3\u0e94": 7540,
  "\u2581ita": 7541,
  "rdi": 7542,
  "\u2581enemy": 7543,
  "\u2581ons": 7544,
  "\u2581w\u1ecdn": 7545,
  "\u015fy": 7546,
  "\u2581gar": 7547,
  "\u2581\u0b15\u0b30\u0b28\u0b4d\u0b24\u0b41": 7548,
  "\u0430\u0436": 7549,
  "\u0d2c": 7550,
  "\u0199": 7551,
  "\u2581lau": 7552,
  "Jehovah": 7553,
  "\u2581bodies": 7554,
  "\u0e21\u0e32": 7555,
  "TO": 7556,
  "\u2581mini": 7557,
  "encia": 7558,
  "\u2581\u0419": 7559,
  "\u5979": 7560,
  "\u00e3o": 7561,
  "\u2581ore": 7562,
  "nana": 7563,
  "\u0457": 7564,
  "idi": 7565,
  "\u0a38\u0a3e": 7566,
  "\u10e0\u10d7": 7567,
  "\u0632\u0649": 7568,
  "\u2581prevent": 7569,
  "\u2581minn": 7570,
  "zwi": 7571,
  "\u0628\u064a": 7572,
  "\u2581que\u00df": 7573,
  "\u2581mina": 7574,
  "\u8fd9": 7575,
  "\u2581ula": 7576,
  "\u1036": 7577,
  "\u0443\u0441": 7578,
  "\u2581kali": 7579,
  "\u2581\u0632\u0645\u06cc\u0646": 7580,
  "\u2581Har": 7581,
  "\u770b": 7582,
  "jel": 7583,
  "\u2581property": 7584,
  "\u2581Yakuwa": 7585,
  "\u10d4\u10da": 7586,
  "\u2581\u0e81\u0ecd": 7587,
  "\u2581mili": 7588,
  "\u06af\u0627": 7589,
  "\u09c3": 7590,
  "\u0c32\u0c3f": 7591,
  "ddu": 7592,
  "ttu": 7593,
  "\u12a1": 7594,
  "\u2581k\u00f5n": 7595,
  "m\u00e4": 7596,
  "\u2581Pictures": 7597,
  "\u2581granted": 7598,
  "\u2581link": 7599,
  "Be": 7600,
  "\u0b21": 7601,
  "\u0c82\u0ca4": 7602,
  "t\u00f2": 7603,
  "\u062f\u06cc": 7604,
  "tiva": 7605,
  "ful": 7606,
  "\u2581iyang": 7607,
  "r\u012b": 7608,
  "uda": 7609,
  "\u043d\u0438\u043d\u0435": 7610,
  "logo": 7611,
  "\u2581expressed": 7612,
  "\u2581regularly": 7613,
  "j\u0101": 7614,
  "\u7406": 7615,
  "\u2581applications": 7616,
  "\u2581\u0440\u0430": 7617,
  "\u2581Convention": 7618,
  "\u044d\u0433": 7619,
  "k\u0101": 7620,
  "\u1eaf": 7621,
  "\u2581particularly": 7622,
  "\u2581\u0d2a\u0d4d\u0d30": 7623,
  "\u5236": 7624,
  "\u101a\u103a": 7625,
  "\u1797": 7626,
  "\u0445\u043e\u0434": 7627,
  "\u2581\u056d": 7628,
  "\u0438\u0442\u044c": 7629,
  "\u2581\u0447\u0442\u043e": 7630,
  "\u0b16": 7631,
  "ade": 7632,
  "ev": 7633,
  "\u2581fana": 7634,
  "\u0578\u057d": 7635,
  "\u2581multi": 7636,
  "toj": 7637,
  "\u2581mali": 7638,
  "\u2581jin": 7639,
  "\u2581\u0ec1": 7640,
  "\u2581\u0430\u0439\u0442": 7641,
  "skap": 7642,
  "\u2581\u062f\u06cc": 7643,
  "\u043a\u04d9\u043d": 7644,
  "\u2581code": 7645,
  "\u2581Et": 7646,
  "out": 7647,
  "\u2581encouraged": 7648,
  "\u2581yee": 7649,
  "ngen": 7650,
  "\u2581Settings": 7651,
  "\u2581books": 7652,
  "\u91cc": 7653,
  "\u09be\u09b0": 7654,
  "\u2581vanhu": 7655,
  "\u2581Tapu": 7656,
  "\u2581Ter": 7657,
  "\u2581k\u00e4": 7658,
  "oto": 7659,
  "peri": 7660,
  "\u12bb": 7661,
  "rze": 7662,
  "\u2581parte": 7663,
  "\u2581manush": 7664,
  "\u2581Others": 7665,
  "\u2581Import": 7666,
  "gay": 7667,
  "issa": 7668,
  "\u2581autem": 7669,
  "\u2581\u0a1c": 7670,
  "\u2581papa": 7671,
  "\u2581currently": 7672,
  "\u0647\u0627\u06cc": 7673,
  "\u2581eight": 7674,
  "\u6700": 7675,
  "\u0440\u0430\u0432": 7676,
  "raj": 7677,
  "\u099b\u09c7": 7678,
  "\u2581import": 7679,
  "\u043b\u044e": 7680,
  "\u2581elder": 7681,
  "\u2581Ag": 7682,
  "bong": 7683,
  "\u2581principle": 7684,
  "\u13cc": 7685,
  "\u2581\u05e0": 7686,
  "\u03b1\u03bd": 7687,
  "\u2581branch": 7688,
  "\u2581^": 7689,
  "\u2581\u10d9": 7690,
  "imo": 7691,
  "\u2581Hence": 7692,
  "\u068c": 7693,
  "\u2581dar": 7694,
  "\u0acd\u0aaf\u0abe": 7695,
  "sim": 7696,
  "\u2581haere": 7697,
  "\u043d\u044b\u0435": 7698,
  "bantu": 7699,
  "\u2581\u09a8\u09be": 7700,
  "\u2581\u0995\u09f0\u0995": 7701,
  "\u0f5e": 7702,
  "\u0c9f": 7703,
  "\u2581ben": 7704,
  "\u258118,": 7705,
  "\u2581iman": 7706,
  "pal": 7707,
  "\u2581\u03b7": 7708,
  "\u0626\u06cc": 7709,
  "tten": 7710,
  "\u2581pis": 7711,
  "\u2581tera": 7712,
  "\u2581\u0d35\u0d3f": 7713,
  "\u2581uru": 7714,
  "\u2581\u0e99\u0eb5\u0ec9": 7715,
  "\u2581displayed": 7716,
  "\u2581Kuri": 7717,
  "\u2581Ste": 7718,
  "dang": 7719,
  "guna": 7720,
  "\u0633\u06d5": 7721,
  "Ba": 7722,
  "\u0561\u056c": 7723,
  "nso": 7724,
  "My": 7725,
  "luka": 7726,
  "\u0430\u0437": 7727,
  "\u2581\u043c\u04d7\u043d": 7728,
  "m\u00e3": 7729,
  "ggi": 7730,
  "\u1039": 7731,
  "\u062a\u0648": 7732,
  "AM": 7733,
  "\u2581\u0686\u0627": 7734,
  "\u2581\u043c\u0435\u043d": 7735,
  "\u2581\u062e\u0647": 7736,
  "\u2581\u0444\u04d5": 7737,
  "lele": 7738,
  "\u0630\u0627": 7739,
  "sol": 7740,
  "\u2581\u0eaa\u0eb0": 7741,
  "\u2581spo": 7742,
  "\u2581online": 7743,
  "\u2581manma": 7744,
  "ania": 7745,
  "\u0131nda": 7746,
  "\u2581\u0939\u0948\u0902": 7747,
  "\u2581pin": 7748,
  "\u10d0\u10ee": 7749,
  "\u2581correct": 7750,
  "\u0631\u062f": 7751,
  "\u304f": 7752,
  "\u2581\u0995\u09bf": 7753,
  "gno": 7754,
  "\u09ad": 7755,
  "si\u00f3n": 7756,
  "\u2581\u0a85": 7757,
  "\u2581\u00e0ti": 7758,
  "\u00e4h": 7759,
  "\u2581developed": 7760,
  "\u2581\u0626\u0648": 7761,
  "b\u00e9": 7762,
  "\u2581\u10e0\u10d0": 7763,
  "soq": 7764,
  "\u0648\u0627\u0631": 7765,
  "\u2581akon": 7766,
  "PA": 7767,
  "\u0433\u0430\u0440": 7768,
  "bla": 7769,
  "\u2581sti": 7770,
  "\u59d4\u5458\u4f1a": 7771,
  "\u2581\u0c26": 7772,
  "\u03b9\u03b1": 7773,
  "nc": 7774,
  "\u0632\u06cc": 7775,
  "\u101a": 7776,
  "\u2581late": 7777,
  "\u2581disease": 7778,
  "\u101b\u102c": 7779,
  "beni": 7780,
  "\u2581Each": 7781,
  "bis": 7782,
  "flu": 7783,
  "\u258144": 7784,
  "\u2581lies": 7785,
  "\u067e\u0627": 7786,
  "\u2581music": 7787,
  "\u2581rumal": 7788,
  "rap": 7789,
  "biri": 7790,
  "\u2581details": 7791,
  "\u2581Ask": 7792,
  "\u2581vision": 7793,
  "\u0441\u0456": 7794,
  "\u101e\u102d\u102f\u1037": 7795,
  "\u2581parent": 7796,
  "\u53ef": 7797,
  "\u2581leaders": 7798,
  "01": 7799,
  "gina": 7800,
  "ph": 7801,
  "n\u00fa": 7802,
  "\u05e8\u05d9": 7803,
  "\u2581n\u00e8k": 7804,
  "\u092b": 7805,
  "shobora": 7806,
  "\u2581archive": 7807,
  "\u2581recent": 7808,
  "\u13af\u13f3": 7809,
  "tigi": 7810,
  "\u2581explain": 7811,
  "\u2581\u12f0": 7812,
  "\u2581eine": 7813,
  "\u2581\u10d1": 7814,
  "\u2581Perhaps": 7815,
  "\u2581harm": 7816,
  "lot": 7817,
  "\u90e8": 7818,
  "\u2581explains": 7819,
  "\u2581Isi": 7820,
  "\u0e97": 7821,
  "\u8bf4": 7822,
  "\u2581Val": 7823,
  "\u2581darkness": 7824,
  "\u0ca8\u0cc6": 7825,
  "\u1291": 7826,
  "\u2581\u043c\u0435\u043d\u0435\u043d": 7827,
  "ngga": 7828,
  "\u2581attend": 7829,
  "\u2581\u0939\u092e": 7830,
  "dam": 7831,
  "\u062a\u0644": 7832,
  "\u2581\u0627\u0644\u062c": 7833,
  "ient": 7834,
  "\u5176": 7835,
  "\u2581expected": 7836,
  "\u0565\u0582": 7837,
  "\u2581sum": 7838,
  "\u2581\u0411\u0443": 7839,
  "zyi": 7840,
  "\u2581\u1796\u17d2\u179a\u17c7": 7841,
  "\u2581\u043f\u04d7\u0440": 7842,
  "\u067d": 7843,
  "\u2581\u0564": 7844,
  "kile": 7845,
  "\u56fd\u5bb6": 7846,
  "\u062c\u0648": 7847,
  "\u2581ireo": 7848,
  "\u2581\u0633\u0631": 7849,
  "\u2581\u0425\u0443\u0434\u043e": 7850,
  "\u2581Enter": 7851,
  "jon": 7852,
  "\u2581\u0628\u0648\u0644": 7853,
  "\u258122.": 7854,
  "\u2581mountains": 7855,
  "\u2581\u043c\u0435\u043d\u04d9\u043d": 7856,
  "\u2581Bir": 7857,
  "\u2581volume": 7858,
  "\u062f\u064a": 7859,
  "\u25811999": 7860,
  "\u2581\u043c\u0438\u043d": 7861,
  "\u2581negative": 7862,
  "ota": 7863,
  "\u2581\u0627\u0644\u062d": 7864,
  "\u2581naj": 7865,
  "\u2581\u05e4": 7866,
  "\u2581\u0192e": 7867,
  "\u2581cur": 7868,
  "\u0159": 7869,
  "\u2581\u0626\u06c7\u0644\u0627\u0631\u0646\u0649\u06ad": 7870,
  "\u0ac1\u0a82": 7871,
  "siya": 7872,
  "\u2581\u092f": 7873,
  "\u2581court": 7874,
  "hur": 7875,
  "\u2581sereta": 7876,
  "\u2581\u0935\u093e": 7877,
  "\u0440\u0435\u0448": 7878,
  "\u2581ger": 7879,
  "b\u00e2nu": 7880,
  "\u2581verily": 7881,
  "\u099f\u09bf": 7882,
  "\u0627\u062d": 7883,
  "k\u00e3": 7884,
  "\u2581nuk": 7885,
  "tio": 7886,
  "v\u00ed": 7887,
  "\u2581Love": 7888,
  "\u2581\u09b6": 7889,
  "\u2581\u0c35\u0c3f": 7890,
  "EF": 7891,
  "\u2581pana": 7892,
  "\u2581foreign": 7893,
  "\u2581g\u0127al": 7894,
  "color": 7895,
  "\u00edocht": 7896,
  "\u2581previous": 7897,
  "\u2581sai": 7898,
  "\u2581nisi": 7899,
  "\u2581nia": 7900,
  "\u2581Assembly": 7901,
  "mera": 7902,
  "\u2581lalu": 7903,
  "inne": 7904,
  "\u03c4\u03b9": 7905,
  "\u03b5\u03b9\u03c2": 7906,
  "sky": 7907,
  "taj": 7908,
  "\u0ca4\u0ccd\u0ca4": 7909,
  "\u2581becoming": 7910,
  "ST": 7911,
  "kala": 7912,
  "\u2581road": 7913,
  "\u0d15\u0d4d\u0d37": 7914,
  "\u2581m\u0259": 7915,
  "Di": 7916,
  "\u2581lalolagi": 7917,
  "ating": 7918,
  "\u2581\u0926\u093f": 7919,
  "\u2581task": 7920,
  "\u00f0i": 7921,
  "bba": 7922,
  "cen": 7923,
  "\u3063": 7924,
  "\u0981": 7925,
  "bulo": 7926,
  "\u0d15\u0d4d\u0d15\u0d4d": 7927,
  "\u2581hurt": 7928,
  "\u039f": 7929,
  "\u0a27": 7930,
  "\u0d4a": 7931,
  "ets": 7932,
  "\u0e0a": 7933,
  "\u2581dialogue": 7934,
  "\u2581range": 7935,
  "\u2581Asia": 7936,
  "DA": 7937,
  "mah": 7938,
  "\u05d0\u05b7": 7939,
  "\u2581m\u00fc": 7940,
  "\u2581challenge": 7941,
  "\u2581spent": 7942,
  "\u2581hoko": 7943,
  "\u2581Later": 7944,
  "\u2581Copy": 7945,
  "\u2581Home": 7946,
  "mili": 7947,
  "\u2581\u00cc": 7948,
  "\u2581blind": 7949,
  "\u2581nit": 7950,
  "l\u0101": 7951,
  "\u2581aron": 7952,
  "\u2581hende": 7953,
  "\u0ca6\u0cc1": 7954,
  "\u660e": 7955,
  "\u0c9f\u0ccd\u0c9f": 7956,
  "\u2581loku": 7957,
  "\u2581feeling": 7958,
  "\u2581si\u0119": 7959,
  "\u0938\u0947": 7960,
  "\u2581sit": 7961,
  "\u2581cost": 7962,
  "\u0161anas": 7963,
  "\u2581battle": 7964,
  "\u0bb5\u0bc7": 7965,
  "\u258124.": 7966,
  "\u2581\u1795": 7967,
  "\u2581\u010c": 7968,
  "\u2581\u043c\u0430\u0440": 7969,
  "\u123d": 7970,
  "vale": 7971,
  "\u2581limited": 7972,
  "\u2581\u4ed6": 7973,
  "\u2581\u0110": 7974,
  "\u2581aus": 7975,
  "\u2581occurred": 7976,
  "\u2581\u091c\u094b": 7977,
  "\u2581Joshua": 7978,
  "\u90a3": 7979,
  "\u0627\u0639": 7980,
  "\u057e": 7981,
  "veni": 7982,
  "75": 7983,
  "\u2581Col": 7984,
  "\u2581\u1793\u17c5": 7985,
  "\u03be": 7986,
  ">>fao<<": 7987,
  "\u0628\u062a": 7988,
  "\u2581challenges": 7989,
  "\u2581\u13d5": 7990,
  "\u043d\u044b\u043c": 7991,
  "\u25813)": 7992,
  "\u03b1\u03c1": 7993,
  "\u2581tabe": 7994,
  "mur": 7995,
  "\u2581Sp": 7996,
  "\u0eb1\u0e9a": 7997,
  "illa": 7998,
  "\u2581Thou": 7999,
  "\u2581bien": 8000,
  "\u5165": 8001,
  "\u0448\u043e": 8002,
  "\u0649\u0644": 8003,
  "\u0c48": 8004,
  "swa": 8005,
  "\u65b0": 8006,
  "\u129b": 8007,
  "has": 8008,
  "\u0943": 8009,
  "\u2581psalmist": 8010,
  "\u4e0e": 8011,
  "tr": 8012,
  "\u2581species": 8013,
  "\u2581significant": 8014,
  "\u2581review": 8015,
  "\u2581\u03b1\u03c0\u03cc": 8016,
  "\u2581tam": 8017,
  "\u00f1u": 8018,
  "\u2581waar": 8019,
  "\u2581agreement": 8020,
  "\u043d\u0438\u0435": 8021,
  "\u2581\u179b": 8022,
  "\u2581rech": 8023,
  "\u2581weeks": 8024,
  "\u2581Tuhan": 8025,
  "\u2581dig": 8026,
  "zvo": 8027,
  "\u2581growth": 8028,
  "rai": 8029,
  "\u2581rave": 8030,
  "\u2581\u043a\u0435\u0448\u0435\u043b\u04d9\u0440": 8031,
  "dad": 8032,
  "\u2581\u0a95": 8033,
  "\u00fct": 8034,
  "nay": 8035,
  "\u2581amu": 8036,
  "\u2581zva": 8037,
  "opo": 8038,
  "\u06c8\u0631": 8039,
  "rag": 8040,
  "ugu": 8041,
  "b\u00ed": 8042,
  "\u2581\u0648\u064a": 8043,
  "\u2581\u178a": 8044,
  "plika": 8045,
  "\u043b\u0443\u0447": 8046,
  "\u0c37": 8047,
  "\u2581dir": 8048,
  "nih": 8049,
  "\u2581covered": 8050,
  "\u2581tei": 8051,
  "\u2581windows": 8052,
  "\u2581b\u00fa": 8053,
  "bula": 8054,
  "\u0628\u0646": 8055,
  "\u2581context": 8056,
  "\u2581ges": 8057,
  "t\u1ee5": 8058,
  "ort": 8059,
  "\u043d\u043e\u043c": 8060,
  "OS": 8061,
  "\u2581mpa": 8062,
  "\u2581ito": 8063,
  "\u2581`%": 8064,
  "\u2581\u134d": 8065,
  "\u2581grand": 8066,
  "\u17c2": 8067,
  "\u2581mari": 8068,
  "\u2581\u0444\u0430\u0439\u043b": 8069,
  "\u2581sua": 8070,
  "mic": 8071,
  "\u2581tenei": 8072,
  "\u2581height": 8073,
  "hang": 8074,
  "\u2581\u0441\u044a": 8075,
  "\u2581kaya": 8076,
  "\u5e76": 8077,
  "\u2581occasion": 8078,
  "\u2581includes": 8079,
  "\u2581usually": 8080,
  "die": 8081,
  "tico": 8082,
  "\u2581dhi": 8083,
  "\u2581\u043a\u0443\u043d": 8084,
  "\u2581\u043c\u043e\u0436\u0435": 8085,
  "\u2581nzoni": 8086,
  "\u17b6\u1794\u17cb": 8087,
  "\u092e\u093e\u0928": 8088,
  "\u0c27": 8089,
  "\u2581\u0627\u067e\u0646\u06d2": 8090,
  "\u2581\u067e\u0627\u0644\u06bb\u06be\u0627\u0631": 8091,
  "tuma": 8092,
  "kora": 8093,
  "\u0c26\u0c3f": 8094,
  "\u2581ele": 8095,
  "tungod": 8096,
  "mag": 8097,
  "\u2581earthly": 8098,
  "\u2581Test": 8099,
  "\u2581Note": 8100,
  "\u2581patience": 8101,
  "\u014b": 8102,
  "\u0d27": 8103,
  "\u0a93": 8104,
  "\u2581Verily": 8105,
  "\u044b\u0433": 8106,
  "\u2581existing": 8107,
  "qq": 8108,
  "\u0434\u043e\u0440": 8109,
  "\u2581foretold": 8110,
  "\u0442\u044b\u043d": 8111,
  "\u2581\u0c8e": 8112,
  "\u2581taku": 8113,
  "\u2581k\u00e9": 8114,
  "\u2581\u1011": 8115,
  "\u2581Leza": 8116,
  "\u2581pal": 8117,
  "kii": 8118,
  "\u2581statement": 8119,
  "\u061b": 8120,
  "\u2581\u05d0\u05e0\u05d9": 8121,
  "\u2581\u121d\u1235": 8122,
  "\u2581\u1000\u103b": 8123,
  "\u0434\u04af": 8124,
  "\u2581\u05d0\u05d9\u05df": 8125,
  "str": 8126,
  "\u2581sig": 8127,
  "\u1793\u17b6": 8128,
  "\u2581Witness": 8129,
  "nova": 8130,
  "\u0a40\u0a06\u0a02": 8131,
  "vita": 8132,
  "\u2581baby": 8133,
  "\u2581staff": 8134,
  "\u2581III": 8135,
  "zima": 8136,
  "\u0c26\u0c41": 8137,
  "\u2581\u0637": 8138,
  "\u2581opera": 8139,
  "\u258139": 8140,
  "reg": 8141,
  "\u1275\u1295": 8142,
  "\u2581committed": 8143,
  "lk": 8144,
  "\u2581\u0627\u0633\u0627\u0646": 8145,
  "CO": 8146,
  "\u1782": 8147,
  "col": 8148,
  "\u2581rey": 8149,
  "\u2581thanks": 8150,
  "\u2581v\u00e0": 8151,
  ">>bel_Latn<<": 8152,
  "\u00e7e": 8153,
  "\u2581moving": 8154,
  "\u2581hei": 8155,
  "\u2581kati": 8156,
  "\u2581aho": 8157,
  "\u2581\u0ec2": 8158,
  "\u0438\u0448\u0438": 8159,
  "rent": 8160,
  "\u0c28\u0c47": 8161,
  "fec": 8162,
  "\u2581J\u00e9sus": 8163,
  "\u524d": 8164,
  "\u2581site": 8165,
  "\u2581Kana": 8166,
  "\u1309": 8167,
  "\u2581sunt": 8168,
  "\u043d\u0430\u043d": 8169,
  "\u0ba9\u0bcd\u0bb1": 8170,
  "\u2581font": 8171,
  "\u2581\u05d0\u05b7": 8172,
  "\u094c": 8173,
  "\u2581neque": 8174,
  "\u65f6": 8175,
  "inta": 8176,
  "\u3055": 8177,
  "\u2581wara": 8178,
  "\u2581\u1015\u102b": 8179,
  "ual": 8180,
  "\u13d3\u13c5": 8181,
  "\u06a9\u0631\u062f": 8182,
  "\u2581\u1782": 8183,
  "\u2581lingbi": 8184,
  "\u2581applied": 8185,
  "\u2581\u0928\u0947": 8186,
  "\u2581produkt": 8187,
  "\u2581todo": 8188,
  "s\u0131": 8189,
  "ibus": 8190,
  "\u2581tahi": 8191,
  "\u2581nako": 8192,
  "\u0c1a": 8193,
  "\u2581bab": 8194,
  "aha": 8195,
  "t\u0254": 8196,
  "\u2581Alkitab": 8197,
  "\u2581\u0440\u044b": 8198,
  "\u09b8\u09c7": 8199,
  "\u2581tells": 8200,
  "\u0c17\u0c41": 8201,
  "\u2581\u043c\u04d9": 8202,
  "pis": 8203,
  "\u2581secret": 8204,
  "swe": 8205,
  "\u17a2": 8206,
  "\u2581tem": 8207,
  "\u2581sch": 8208,
  "ungen": 8209,
  "\u10d4\u10d1\u10e1": 8210,
  "\u010be": 8211,
  "\u0e96": 8212,
  "aku": 8213,
  "izi": 8214,
  "hai": 8215,
  "\u0d31\u0d4d\u0d31": 8216,
  "\u2581ite": 8217,
  "\u2581ky": 8218,
  "\u2581Ah": 8219,
  "\u2581asa": 8220,
  "\u2581assignment": 8221,
  "\u2581Tau": 8222,
  "\u2581anne": 8223,
  "\u2581dapat": 8224,
  "La": 8225,
  "\u0430\u0430\u0440": 8226,
  "\u2581requires": 8227,
  "\u2581wealth": 8228,
  "\u2581r\u00e2": 8229,
  "jja": 8230,
  "pass": 8231,
  "\u03bb\u03b1": 8232,
  "\u2581wonder": 8233,
  "\u307e": 8234,
  "\u2581Ale": 8235,
  "\u0ccd\u0cb0": 8236,
  "\u2581biz": 8237,
  "\u2581\u0ec3\u0e88": 8238,
  "\u2581\u0632\u06cc\u0631\u0627": 8239,
  "\u017ca": 8240,
  "sor": 8241,
  "\u2581bre": 8242,
  "\u043d\u043e\u0441\u0442\u0438": 8243,
  "\u093e\u0924": 8244,
  "\u2581\u04e9\u0441\u04e9\u043d": 8245,
  "\u2581\u0b2a\u0b4d\u0b30": 8246,
  "onga": 8247,
  "\u2581imperfect": 8248,
  "\u0ab0\u0ac0": 8249,
  "ngin": 8250,
  "\u2581waiting": 8251,
  "\u0db8\u0dca": 8252,
  "\u2581assigned": 8253,
  "vid": 8254,
  "\u2581midst": 8255,
  "\u043e\u0431": 8256,
  "\u06cb": 8257,
  "\u2581Inter": 8258,
  "(1)": 8259,
  "iriza": 8260,
  "\u2581\u0d24": 8261,
  "umi": 8262,
  "dini": 8263,
  "\u2581directly": 8264,
  "\u2581Bra": 8265,
  "siku": 8266,
  "t\u016b": 8267,
  "\u2581\u03a0": 8268,
  "70": 8269,
  "h\u00e4": 8270,
  "\u2581Which": 8271,
  "spre": 8272,
  "US": 8273,
  "\u00e0n": 8274,
  "\u06d4": 8275,
  "luar": 8276,
  "\u2581unless": 8277,
  "\u258142": 8278,
  "\u10d5\u10d4": 8279,
  "\u2581\u039a": 8280,
  "\u2581\u1010\u102d\u102f\u1037": 8281,
  "\u2581\u13a4\u13c1\u13b3\u13c5\u13af": 8282,
  "\u10d3\u10d8": 8283,
  "\u258165": 8284,
  "\u2581\u0431\u0438\u043b\u0435": 8285,
  "\u2581\u062a\u0646\u06be\u0646": 8286,
  "\u2581Ban": 8287,
  "\u05ea\u05d9": 8288,
  "\u2581aw": 8289,
  "\u5f88": 8290,
  "nun": 8291,
  "\u2581\u0967": 8292,
  "rsa": 8293,
  "\u064a\u0642": 8294,
  "kter": 8295,
  "\u2581\u0a9c": 8296,
  "\u2581placed": 8297,
  "hanga": 8298,
  "\u0633\u0627\u0646": 8299,
  "\u2581quite": 8300,
  "\u30b9": 8301,
  "\u0440\u0435\u0434": 8302,
  "w\u0254": 8303,
  "\u2581xin": 8304,
  "\u2581Qa": 8305,
  "rika": 8306,
  "\u2581bantu": 8307,
  "\u2581\u0641\u0647": 8308,
  "och": 8309,
  "\u062a\u06c7\u0631": 8310,
  "\u2581success": 8311,
  "\u2581rise": 8312,
  "\u0f56\u0fb1": 8313,
  "eni": 8314,
  "wini": 8315,
  "\u0639\u0627": 8316,
  "\u0903": 8317,
  "mi\u015f": 8318,
  "hita": 8319,
  "\u2581\u0928\u0939\u0940\u0902": 8320,
  "\u2581black": 8321,
  "\u2581\u0680": 8322,
  "nyika": 8323,
  "its": 8324,
  "\u2581chque": 8325,
  "\u2581seg": 8326,
  "\u2581ndzi": 8327,
  "\u043e\u043f": 8328,
  "\u2581\u0627\u06af\u0631": 8329,
  "\u258141": 8330,
  "\u0a30\u0a3e": 8331,
  "\u2581Min": 8332,
  "\u2581\u03c4\u03c9\u03bd": 8333,
  "\u2581\u09ab": 8334,
  "nica": 8335,
  "\u2581ane": 8336,
  "\u258120,": 8337,
  "\u2581\u0432\u0438\u0434": 8338,
  "\u2581faata": 8339,
  "\u2581\u120b\u12ed": 8340,
  "vent": 8341,
  "\u2581Mag": 8342,
  "ffer": 8343,
  "\u2581uses": 8344,
  "tero": 8345,
  "\u0ab8\u0acd": 8346,
  "bes": 8347,
  "\u043b\u044b\u04a1": 8348,
  "ppe": 8349,
  "rij": 8350,
  "\u0256": 8351,
  "st\u0101": 8352,
  "\u043d\u0430\u043b": 8353,
  "\u2581Jer": 8354,
  "\u2581nini": 8355,
  "saa": 8356,
  "\u2581Really": 8357,
  "47": 8358,
  "\u2581rei": 8359,
  "\u2581rahi": 8360,
  "\u2581fili": 8361,
  "\u2581reached": 8362,
  "neqar": 8363,
  "yuda": 8364,
  "inda": 8365,
  "\u2581p\u00f2": 8366,
  "fun": 8367,
  "\u00e7\u00f5es": 8368,
  "\u0631\u062a": 8369,
  "\u12da": 8370,
  "\u2581\u06a9\u0631\u062f\u0647": 8371,
  "vr": 8372,
  "\u2581\u0443\u043b\u0430\u0440": 8373,
  "\u0c1a\u0c3f": 8374,
  "\u2581manifest": 8375,
  "\u2581\u062c\u0633": 8376,
  "\u2581\u10d7": 8377,
  "\u2581\u0430\u0441\u0442": 8378,
  "All": 8379,
  "\u2581Desktop": 8380,
  "\u2581higher": 8381,
  "\u2581percent": 8382,
  "\u134b": 8383,
  "49": 8384,
  "\u0e44\u0e1b": 8385,
  "\u2581oia": 8386,
  "\u2581\u021b": 8387,
  "\u2581function": 8388,
  "\u0bb1\u0bc1": 8389,
  "\u2581\u0627\u0644\u0625": 8390,
  "\u2581tel\u0101": 8391,
  "\u2581wind": 8392,
  "\u03b9\u03bf": 8393,
  "\u2581\u04d5": 8394,
  "\u04f1": 8395,
  "\u2581Children": 8396,
  "\u044a\u044f": 8397,
  "\u2581Fer": 8398,
  "\u2581Sin": 8399,
  "\u2581extra": 8400,
  "\u2581mountain": 8401,
  "\u2581Over": 8402,
  "\u2581police": 8403,
  "\u0bb5\u0bbf": 8404,
  "\u03b1\u03b9": 8405,
  "ves": 8406,
  "\u2581master": 8407,
  "med": 8408,
  "ette": 8409,
  "\u2581Ano": 8410,
  "\u2581\u00ddehowa": 8411,
  "g\u00e9": 8412,
  "obu": 8413,
  "\u2581personality": 8414,
  "\u2581waters": 8415,
  "\u2581Ap": 8416,
  "\u2581army": 8417,
  "\u2581Euro": 8418,
  "\u0561\u0570": 8419,
  "\u2581otro": 8420,
  "\u062e\u0648\u0627": 8421,
  "\u2581gid": 8422,
  "\u0da9": 8423,
  "\u2581handle": 8424,
  "\u2581\u067e\u0646\u06be\u0646\u062c\u064a": 8425,
  "\u2581\u0e2a": 8426,
  "\u01a1": 8427,
  "\u043f\u0440\u0430\u0432": 8428,
  "rig": 8429,
  "\u2581upp": 8430,
  "\u2581TO": 8431,
  "fici": 8432,
  "\u0578\u0582\u0569\u0575\u0578\u0582\u0576": 8433,
  "\u540d": 8434,
  "\u2581\u043a\u043e\u0440": 8435,
  "\u0648\u0633": 8436,
  "\u0431\u0440": 8437,
  "gung": 8438,
  "\u2581rejected": 8439,
  "\u2581jeh": 8440,
  "\u2581gel": 8441,
  "\u2581\u0926\u0947": 8442,
  "\u0e49\u0e32": 8443,
  "\u0440\u0430\u043c": 8444,
  "\u2581\u12a5\u12da": 8445,
  "\u2581manager": 8446,
  "\u2581\u00c8": 8447,
  "lf": 8448,
  "\u2581gud": 8449,
  "\u0445\u044c": 8450,
  "\u10d3\u10d4": 8451,
  "\u0627\u064a": 8452,
  "ings": 8453,
  "\u0dd4\u0dc0": 8454,
  "\u10e3\u10e0": 8455,
  "lega": 8456,
  "\u2581punkt": 8457,
  "lad": 8458,
  "yp": 8459,
  "\u2581uiga": 8460,
  "\u2581Paradise": 8461,
  "\u0561\u0572": 8462,
  "\u2581fish": 8463,
  "\u2581delete": 8464,
  "\u2581ont": 8465,
  "UE": 8466,
  "\u2581territory": 8467,
  "ight": 8468,
  "noa": 8469,
  "ments": 8470,
  "\u2581\u062e\u06c6": 8471,
  "cto": 8472,
  "\u0bc1\u0b95\u0bcd\u0b95\u0bc1": 8473,
  "\u0440\u0435\u043d": 8474,
  "\u2581Ndi": 8475,
  "\u2581hana": 8476,
  "\u2581capacity": 8477,
  "\u2581mem": 8478,
  "nei": 8479,
  "\u2581approval": 8480,
  "\u2581\u0a32": 8481,
  "\u0b17": 8482,
  "\u2581mada": 8483,
  "cili": 8484,
  "\u2581p\u0101r": 8485,
  "ongo": 8486,
  "y\u00e0": 8487,
  "\u2581teachings": 8488,
  "sama": 8489,
  "\u0cbe\u0cb0": 8490,
  "\u2581Nie": 8491,
  "\u2581\u0431\u0438\u0441": 8492,
  "\u0442\u043e\u043d": 8493,
  "\u2581linga": 8494,
  "\u2581anthu": 8495,
  "eva": 8496,
  "\u2581loves": 8497,
  "\u2581\u0430\u0439": 8498,
  "\u2581Art": 8499,
  "wiri": 8500,
  "\u2581ando": 8501,
  "\u2581v\u00f5i": 8502,
  "\u0644\u06d5\u0631": 8503,
  "vala": 8504,
  "leen": 8505,
  "\u0f9f": 8506,
  "\u2581\u0dc0\u0dd2": 8507,
  "rey": 8508,
  "\u2581\u067e\u06cc": 8509,
  "\u064a\u0645": 8510,
  "\u0627\u0648": 8511,
  "\u2581loko": 8512,
  "\u2581agree": 8513,
  "\u0435\u043a": 8514,
  "\u2581sini": 8515,
  "\u2581\u0443\u0438": 8516,
  "\u0443\u0437": 8517,
  "hl": 8518,
  "\u012bbu": 8519,
  "\u2581millions": 8520,
  "\u2581vien": 8521,
  "\u2581\u0430\u043a": 8522,
  "\u2581mangi": 8523,
  "\u2581animal": 8524,
  "\u2581\u00d2": 8525,
  "\u2581\u0646\u0648": 8526,
  "\u0626\u0647": 8527,
  "maan": 8528,
  "\u0995\u09be": 8529,
  "\u2581g\u00fcn": 8530,
  "\u2581dro": 8531,
  "\u2581nin": 8532,
  "\u2581eki": 8533,
  "here": 8534,
  "maga": 8535,
  "\u06ce\u06a9": 8536,
  "\u2581\u0646\u06cc": 8537,
  "\u2581\u0648\u062a": 8538,
  "\u2581promote": 8539,
  "\u049b\u0438": 8540,
  "\u2581produce": 8541,
  "\u2581kw": 8542,
  "\u2581taka": 8543,
  "\u2581\u0eab\u0ebc\u0eb2\u0e8d": 8544,
  "were": 8545,
  "\u2581harmony": 8546,
  "\u2581tume": 8547,
  "ngela": 8548,
  "\u00e1n\u00ed": 8549,
  "\u2581closer": 8550,
  "\u2581Kar": 8551,
  "\u2581tangata": 8552,
  "vos": 8553,
  "\u2581m\u00e0": 8554,
  "\u2581doctor": 8555,
  "\u2581id": 8556,
  "\u2581\u0101": 8557,
  "\u2581unity": 8558,
  "cript": 8559,
  "ngisa": 8560,
  "dyr": 8561,
  "\u2581Suku": 8562,
  "cas": 8563,
  "\u2581Katonda": 8564,
  "\u13d7\u13f1": 8565,
  "\u2581imo": 8566,
  "\u2581\u0b2c": 8567,
  "\u2581ship": 8568,
  "\u13cd\u13ac": 8569,
  "\u2581guard": 8570,
  "\u2581Two": 8571,
  "\u03b9\u03c3": 8572,
  "\u2581Jiova": 8573,
  "\u0441\u043a\u043e": 8574,
  "\u2581guy": 8575,
  "\u2581prze": 8576,
  "\u2581\u05e4\u05bf\u05d5": 8577,
  "\u03ce\u03bd": 8578,
  "uin": 8579,
  "\u2581Click": 8580,
  "\u2581IN": 8581,
  "\u0576\u0565\u0580\u0568": 8582,
  "\u2581bro": 8583,
  "KO": 8584,
  "\u0441\u044d\u043d": 8585,
  "\u062e\u0627": 8586,
  "unu": 8587,
  "l\u00f2": 8588,
  "kiri": 8589,
  "\u0159e": 8590,
  "\u2581sky": 8591,
  "b\u00f2": 8592,
  "\u2581m\u0101": 8593,
  "\u0646\u06af": 8594,
  "\u2581lelei": 8595,
  "\u2581s\u00f3": 8596,
  "aya": 8597,
  "\u53d1": 8598,
  "\u2581Check": 8599,
  "\u2581\u0391": 8600,
  "\u2581egy": 8601,
  "hamba": 8602,
  "[": 8603,
  "\u2581vari": 8604,
  "\u0939\u093f": 8605,
  "\u2581grateful": 8606,
  "\u2581tool": 8607,
  "\u2581pada": 8608,
  "\u2581Shi": 8609,
  "\u2581\u0628\u0649\u0632": 8610,
  "EK": 8611,
  "\u0dc5": 8612,
  "\u2581dra": 8613,
  "\u2581tongue": 8614,
  "ssel": 8615,
  "kia": 8616,
  "\u2581mel": 8617,
  "\u2581\u03a3": 8618,
  "\u2581\u0423\u043b": 8619,
  "\u2581kepada": 8620,
  "\u2581jo\u00df": 8621,
  "\u2581bata": 8622,
  "\u2581deny": 8623,
  "v\u0113": 8624,
  "\u12f2": 8625,
  "\u2581\u0443\u0447": 8626,
  "\u2581opinion": 8627,
  "\u0642\u062f": 8628,
  "\u2581\u062c\u0628": 8629,
  "\u0f58\u0f0b": 8630,
  "rah": 8631,
  "\u2581\u0627\u06cc\u06a9": 8632,
  "rere": 8633,
  "gamba": 8634,
  "\u0627\u062c": 8635,
  "\u2581maha": 8636,
  "\u2581Mana": 8637,
  "\u0c26\u0c3e": 8638,
  "\u2581Kor": 8639,
  "\u0930\u094b": 8640,
  "\u2581\u043f\u0440\u0430": 8641,
  "\u2581\u0632\u06c6\u0631": 8642,
  "\u2581\u0c28": 8643,
  "\u2581t\u00e8": 8644,
  "\u258122,": 8645,
  "\u2581raise": 8646,
  "\u2581\u05d6\u05d4": 8647,
  "\u2581\u043a\u0430\u0440": 8648,
  "\u2581yes": 8649,
  "usta": 8650,
  "\u0baa\u0bbf": 8651,
  "\u2581Mas": 8652,
  "sie": 8653,
  "\u2581iek": 8654,
  "\u0456\u0432": 8655,
  "\u2581Options": 8656,
  "\u05d9\u05e9": 8657,
  "\u056a": 8658,
  "it\u00e0": 8659,
  "pia": 8660,
  "\u2581\u0c38\u0c02": 8661,
  "\u2581outou": 8662,
  "\u0c2a\u0c41": 8663,
  "\u2581\u0639\u0646": 8664,
  "singa": 8665,
  "\u0e88": 8666,
  "\u2581noted": 8667,
  "\u2581card": 8668,
  "t\u00ee": 8669,
  "\u2581Tre": 8670,
  "\u2581tae": 8671,
  "\u2581\u09b8\u09be": 8672,
  "\u0443\u0431": 8673,
  "hir": 8674,
  "\u064a\u0627\u062a": 8675,
  "\u1030": 8676,
  "\u2581\u09af\u09be": 8677,
  "kua": 8678,
  "\u03c3\u03c4": 8679,
  "\u2581\u05d0\u05d5": 8680,
  "\u2581Hall": 8681,
  "\u2581moment": 8682,
  "\u2581\u0a28\u0a47": 8683,
  "mod": 8684,
  "\u2581Kau": 8685,
  "\u2581amene": 8686,
  "\u2581nh": 8687,
  "\u0695\u06ce": 8688,
  "\u2581\u0626\u0649\u0634": 8689,
  "DI": 8690,
  "\u2581\u043c\u04e9": 8691,
  "mmi": 8692,
  "\u2581\u0ab5": 8693,
  "\u13a7": 8694,
  "\u2581\u0578\u0582": 8695,
  "\u06ce\u0646": 8696,
  "\u2581procedure": 8697,
  "gama": 8698,
  "\u25812014": 8699,
  "\u2581hearing": 8700,
  "lju": 8701,
  "stis": 8702,
  "\u0ecd": 8703,
  "r\u00fc": 8704,
  "time": 8705,
  "\u0442\u0430\u043f": 8706,
  "ambi": 8707,
  "heid": 8708,
  "bera": 8709,
  "\u2581situations": 8710,
  "\u2581Nama": 8711,
  "\u0434\u043e\u043b": 8712,
  "f\u00ed": 8713,
  "\u2581\u10e3": 8714,
  "\u0c32\u0c4d": 8715,
  "\u2581presented": 8716,
  "\u2581amb": 8717,
  "\u2581lands": 8718,
  "\u2581compassion": 8719,
  "vali": 8720,
  "\u2581\u0db6": 8721,
  "\u00fdy": 8722,
  "c\u00eb": 8723,
  "prim": 8724,
  "hte": 8725,
  "\u2581silver": 8726,
  "\u0bb2\u0bcd\u0bb2": 8727,
  "\u540e": 8728,
  "\u2581France": 8729,
  "\u2581Sidi": 8730,
  "grad": 8731,
  "ted": 8732,
  "\u2581i\u00e7in": 8733,
  "\u2581\u5728": 8734,
  "\u2581keeping": 8735,
  "\u2581\u0410\u043d\u0446\u04d9\u0430": 8736,
  "\u2581\u0410\u043b\u043b\u0430\u04bb": 8737,
  "\u2581unknown": 8738,
  "\u2581\u0434\u04d5\u0440": 8739,
  "gaan": 8740,
  "\u2581Address": 8741,
  "\u2581m\u00fb": 8742,
  "\u2581\u178f\u17be": 8743,
  "\u12a4": 8744,
  "\u2581Pas": 8745,
  "\u2581Mer": 8746,
  "\u2581\u1215": 8747,
  "\u2581Every": 8748,
  "\u00fdan": 8749,
  "sione": 8750,
  "\u0b95\u0bb3": 8751,
  "qqa": 8752,
  "lisi": 8753,
  "\u2581Tohi": 8754,
  "\u03b8\u03b5": 8755,
  "\u0d35\u0d30": 8756,
  "\u2581tribulation": 8757,
  "pak": 8758,
  "\u2581Fire": 8759,
  "\u2581\u0443\u0447\u0443\u043d": 8760,
  "\u2581\u092e\u0941": 8761,
  "kay": 8762,
  "\u300c": 8763,
  "\u2581n\u00edn\u00fa": 8764,
  "85": 8765,
  "\u2581koya": 8766,
  "rra": 8767,
  "fani": 8768,
  "\u2581lesson": 8769,
  "\u2581\u05d3\u05d9": 8770,
  "\u2581Date": 8771,
  "\u2581\u0915\u0930\u0942": 8772,
  "\u2581\u062c\u0627\u0646": 8773,
  "\u2581crowd": 8774,
  "\u00f6s": 8775,
  "\u2581thank": 8776,
  "\u2581civil": 8777,
  "\u2581sovereignty": 8778,
  "\u2581examine": 8779,
  "\u2581\u0647\u06cc\u0686": 8780,
  "\u017ea": 8781,
  "\u0c15\u0c3f": 8782,
  "\u0642\u0627\u0646": 8783,
  "\u2581Nevertheless": 8784,
  "\u2581eku": 8785,
  "\u2581paid": 8786,
  "\u2581separate": 8787,
  "\u2581Kua": 8788,
  "\u2581rar": 8789,
  "\u2581guided": 8790,
  "\u2581whoever": 8791,
  "\u2581character": 8792,
  "rok": 8793,
  "\u00edn\u00ed": 8794,
  "\u2581Ur": 8795,
  "jana": 8796,
  "\u04d9\u043a": 8797,
  "\u0baa\u0bcd": 8798,
  "\u2581qual": 8799,
  "tribu": 8800,
  "\u2581doon": 8801,
  "\u2581k\u00f5": 8802,
  "\u8fd8": 8803,
  "\u2581\u00c0": 8804,
  "\u17b6\u1793": 8805,
  "\u043b\u0430\u0440\u043d\u0438": 8806,
  "\u2581i\u015f": 8807,
  "\u0e9b": 8808,
  "\u2581gali": 8809,
  "\u0699": 8810,
  "\u2581posi": 8811,
  "\u03c4\u03b7": 8812,
  "medi": 8813,
  "\u2581saka": 8814,
  "l\u00f6": 8815,
  "\u2581parties": 8816,
  "\u2581practices": 8817,
  "buh": 8818,
  "\u2581encouragement": 8819,
  "nim": 8820,
  "\u1266": 8821,
  "\u2581Treaty": 8822,
  "fri": 8823,
  "\u1011": 8824,
  "\u2581\u1798\u17b7\u1793": 8825,
  "\u2581daughters": 8826,
  "\u2581\u067e\u0648": 8827,
  "\u2581technical": 8828,
  "\u2581Location": 8829,
  "\u2581v\u00e4": 8830,
  "alta": 8831,
  "\u2581toto": 8832,
  "\u2581\u09a4": 8833,
  "\u0633\u06cc": 8834,
  "bone": 8835,
  "\u2581Security": 8836,
  "\u1276": 8837,
  "\u2581naan": 8838,
  "\u2581although": 8839,
  "\u04d5\u0434": 8840,
  "\u0936\u094d": 8841,
  "\u2581seki": 8842,
  "\u2581\u06cc\u0647": 8843,
  "\u2581diad": 8844,
  "45": 8845,
  "\u2581\u0e17\u0e35\u0e48": 8846,
  "l\u0259ri": 8847,
  "bad": 8848,
  "sya": 8849,
  "\u2581Mount": 8850,
  "\u10d0\u10da": 8851,
  "\u0bcd": 8852,
  "\u05e8\u05e2": 8853,
  "\u65b9": 8854,
  "\u7279": 8855,
  "n\u00e0": 8856,
  "\u2581\u06be\u0627": 8857,
  "hun": 8858,
  "\u2581\u1001\u1032\u1037": 8859,
  "\u0578\u0582\u0569\u0575\u0561\u0576": 8860,
  "\u0438\u043f": 8861,
  "\u2581ngagai": 8862,
  "\u2581\u1325": 8863,
  "\u2581\u0432\u0456\u0434": 8864,
  "\u102c\u1038": 8865,
  "\u2581\u00f1i": 8866,
  "uku": 8867,
  "nali": 8868,
  "\u09b8\u09cd\u09a5": 8869,
  "\u2581taa": 8870,
  "\u2581\u0433\u0438": 8871,
  "\u2581dedicated": 8872,
  "\u2581decide": 8873,
  "\u300a": 8874,
  "\u09bf\u0995": 8875,
  "\u2581documents": 8876,
  "\u0430\u044f": 8877,
  "\u0438\u043b\u0438": 8878,
  "dhe": 8879,
  "\u2581sat": 8880,
  "\u2581\u0561\u0576": 8881,
  "\u0622": 8882,
  "\u10d4\u10da\u10d8": 8883,
  "lder": 8884,
  "esti": 8885,
  "\u0d1c": 8886,
  "\u2581broken": 8887,
  "\u133b": 8888,
  "\u2581\u092a\u0941": 8889,
  "\u0d35\u0d3e": 8890,
  "\u09a4\u09be": 8891,
  "\u2581Minister": 8892,
  "\u13cd\u13aa": 8893,
  "\u2581ide": 8894,
  "cua": 8895,
  "\u00e8re": 8896,
  "\u043b\u0430\u043f": 8897,
  "\u0561\u056e": 8898,
  "\u04bb\u044b": 8899,
  "gor": 8900,
  "\u0a09": 8901,
  "vil": 8902,
  "\u03c1\u03af": 8903,
  "\u2581j\u00e4": 8904,
  "\u044a\u0440": 8905,
  "ayaa": 8906,
  "88": 8907,
  "\u4f53": 8908,
  "\u0c82": 8909,
  "\u2581Stop": 8910,
  "tino": 8911,
  "\u092e\u0947": 8912,
  "\u2581\u03b4": 8913,
  "\u300d": 8914,
  "\u2581www": 8915,
  "95": 8916,
  "\u2581medical": 8917,
  "\u2581configuration": 8918,
  "\u0b24\u0b4d": 8919,
  "\u0a39\u0a3e": 8920,
  "\u0561\u057c": 8921,
  "AP": 8922,
  "\u2581cuanqueb": 8923,
  "\u2581sake": 8924,
  "ame": 8925,
  "\u2581\u0a39": 8926,
  "hor": 8927,
  "\u2581\u0aa6": 8928,
  "ni\u0148": 8929,
  "\u2581root": 8930,
  "zyo": 8931,
  "\u2581teu": 8932,
  "\u043a\u0438\u043d": 8933,
  "\u2581anh": 8934,
  "\u17b6\u1799": 8935,
  "\u2581mapa": 8936,
  "uj": 8937,
  "\u2581Office": 8938,
  "\u2581\u0aae": 8939,
  "\u2581Sara": 8940,
  "\u2581\u10db\u10d8": 8941,
  "\u2581radio": 8942,
  "\u2581\u043b\u0430": 8943,
  "g\u0101": 8944,
  "\u5e94": 8945,
  "dian": 8946,
  "\u0431\u0435\u0440": 8947,
  "\u13e4\u13b5": 8948,
  "\u2581\u0627\u0628": 8949,
  "\u2581stone": 8950,
  "90": 8951,
  "\u0d41\u0d33\u0d4d\u0d33": 8952,
  "\u2581\u1eb9": 8953,
  "\u09be\u09af\u09bc": 8954,
  "\u2581wana": 8955,
  "\u2581\u0444\u0430": 8956,
  "\u2581taua": 8957,
  "fal": 8958,
  "m\u00f5n": 8959,
  "\u0d3f\u0d1a\u0d4d\u0d1a": 8960,
  "lagi": 8961,
  "\u2581\u0ba8\u0bbf": 8962,
  "key": 8963,
  "lolo": 8964,
  "\u13ec": 8965,
  "dur": 8966,
  "\u0b2d": 8967,
  "sche": 8968,
  "\u2581Play": 8969,
  "\u2581\u00ab%": 8970,
  "\u2581Bri": 8971,
  "\u2581\u0430\u0431": 8972,
  "\u2581developing": 8973,
  "\u2581ohun": 8974,
  "ch\u00e9": 8975,
  "\u2581numa": 8976,
  "\u2581\u044f\u0440\u0430\u0442": 8977,
  "\u2581Vu": 8978,
  "teur": 8979,
  "\u2581fill": 8980,
  "\u2581\u0442\u0435\u0441\u0435": 8981,
  "\u2581\u13a2\u13f3": 8982,
  "ement": 8983,
  "dere": 8984,
  "CH": 8985,
  "\u0b95\u0bbe": 8986,
  "\u2581capital": 8987,
  "kker": 8988,
  "kas": 8989,
  "ins": 8990,
  "\u1ebf": 8991,
  "\u044d": 8992,
  "\u2581Yi": 8993,
  "tana": 8994,
  "\u04d1\u0448": 8995,
  "\u2581military": 8996,
  "\u2581costs": 8997,
  "hlu": 8998,
  "\u2581exactly": 8999,
  "ncia": 9000,
  "bbli": 9001,
  "vre": 9002,
  "bor": 9003,
  "\u0982": 9004,
  "\u2581homes": 9005,
  "nung": 9006,
  "\u2581ng\u01b0\u1eddi": 9007,
  "maka": 9008,
  "\u2581jas": 9009,
  "\u2581\u0a86": 9010,
  "\u2581siya": 9011,
  "\u2581\u0e41\u0e25\u0e30": 9012,
  "\u2581\u10d0": 9013,
  "\u2581\u04e9\u04e9\u0440": 9014,
  "\u0631\u062f\u0647": 9015,
  "liki": 9016,
  "\u2581ika": 9017,
  "gua": 9018,
  "\u0b4d\u0b2f": 9019,
  "\u2581\u1016\u103c\u1005\u103a": 9020,
  "\u2581train": 9021,
  "nome": 9022,
  "UR": 9023,
  "\u2581ngir": 9024,
  "\u2581Matt": 9025,
  "\u043d\u044b\u043d": 9026,
  "\u2581folders": 9027,
  "\u2581interes": 9028,
  "\u013c": 9029,
  "\u2581hogy": 9030,
  "\u2581\u13d3": 9031,
  "\u2581aux": 9032,
  "\u2581\u05e9\u05dc": 9033,
  "\u2581zijn": 9034,
  "\u10d8\u10dc": 9035,
  "-1": 9036,
  "\u2581\u00efa": 9037,
  "\u0aac": 9038,
  "\u300b": 9039,
  "\u044b\u043d\u044b": 9040,
  "\u2581Messiah": 9041,
  "\u2581iho": 9042,
  "lina": 9043,
  "\u2581fail": 9044,
  "\u2581p\u00e8": 9045,
  "\u2581g\u00f6": 9046,
  "\u2581fulfillment": 9047,
  "ym": 9048,
  "\u2581ime": 9049,
  "\u2581kya": 9050,
  "\u2581hidden": 9051,
  "obo": 9052,
  "}": 9053,
  "\u2581Uku": 9054,
  "list": 9055,
  "\u9762": 9056,
  "kita": 9057,
  "\u2581Ali": 9058,
  "\u0438\u0442\u0438": 9059,
  "plica": 9060,
  "24": 9061,
  "AD": 9062,
  "\u2581vona": 9063,
  "\u2581tona": 9064,
  "saka": 9065,
  "\u308f": 9066,
  "\u2581communication": 9067,
  "\u2581Eb": 9068,
  "\u2581taotao": 9069,
  "\u2581humility": 9070,
  "\u4f46": 9071,
  "som": 9072,
  "\u2581\u0111\u00e3": 9073,
  "\u5427": 9074,
  "\u0578\u0576": 9075,
  "\u2581sacrifices": 9076,
  "\u2581contrast": 9077,
  "\u2581contribute": 9078,
  "\u04af\u04af\u043b": 9079,
  "\u0259r": 9080,
  "\u2581convention": 9081,
  "\u2581February": 9082,
  "\u0561\u0577": 9083,
  "\u2581Nan": 9084,
  "nding": 9085,
  "\u2581\u067e\u06be\u0631": 9086,
  "\u258148": 9087,
  "vert": 9088,
  "\u2581hulle": 9089,
  "\u2581allows": 9090,
  "\u2581\u0a05\u0a24\u0a47": 9091,
  "\u043a\u043e\u0432": 9092,
  "\u2581dag": 9093,
  "\u2581\u062f\u0644": 9094,
  "\u2581household": 9095,
  "\u2581bez": 9096,
  "bara": 9097,
  "\u2581\u0438\u043b\u0438": 9098,
  "\u2581bai": 9099,
  "\u1edb": 9100,
  "\u2581\u0642\u0649\u0644\u063a\u0627\u0646": 9101,
  "\u06ce\u062a": 9102,
  "\u2581SONGS": 9103,
  "jun": 9104,
  "IL": 9105,
  "\u2581Though": 9106,
  "\u2581\u04e9": 9107,
  "tini": 9108,
  "Te": 9109,
  "\u1208\u12cd": 9110,
  "Add": 9111,
  "\u2581\u043a\u0435\u0448\u0435": 9112,
  "olu": 9113,
  "\u0c97\u0cc6": 9114,
  "kila": 9115,
  "\u0e39": 9116,
  "\u2581eks": 9117,
  "rab": 9118,
  "\u2581\u1010\u101a\u103a": 9119,
  "\u2581{\\": 9120,
  "\u0e1b": 9121,
  "\u0578\u0582\u0580": 9122,
  "\u25812016": 9123,
  "\u2581\u0928\u093e\u0939\u0940": 9124,
  "\u2581Maria": 9125,
  "\u2581Ez": 9126,
  "\u2581kra": 9127,
  "\u2581\u00f6z": 9128,
  "\u2581\u092f\u0939\u094b\u0935\u093e": 9129,
  "\u2581\u0dba": 9130,
  "stav": 9131,
  "\u2581\u05ea": 9132,
  "\u0b95\u0bc1": 9133,
  "plo": 9134,
  "59": 9135,
  "\u2581youth": 9136,
  "\u2581chix": 9137,
  "\u0dad\u0dd2": 9138,
  "\u2581\u056b\u0580": 9139,
  "\u2581grace": 9140,
  "\u2581consideration": 9141,
  "\u2581\u0440\u043e": 9142,
  "raoi": 9143,
  "\u0d17": 9144,
  "\u0259m": 9145,
  "\u2581becomes": 9146,
  "az": 9147,
  "\u2581Gen": 9148,
  "\u12ce\u127d": 9149,
  "\u2581(3)": 9150,
  "\u043a\u044a": 9151,
  "\u2581perform": 9152,
  "\u10d4\u10e1": 9153,
  "\u2581affected": 9154,
  "linga": 9155,
  "\u043a\u0435\u0440": 9156,
  "\u25814)": 9157,
  "\u2581join": 9158,
  "\u2581carefully": 9159,
  "\u2581establish": 9160,
  "\u2581\u4e0d": 9161,
  "\u2581illustration": 9162,
  "\u2581\u0627\u064a": 9163,
  "\u2581etc": 9164,
  "\u62c9": 9165,
  "bhe": 9166,
  "\u0932\u093f": 9167,
  "\u2581\u0445\u04af\u043d": 9168,
  "\u2581Era": 9169,
  "\u0437\u044b\u043d": 9170,
  "fai": 9171,
  "\u2581Asa": 9172,
  "\u0cc8": 9173,
  "\u2581\u043f\u0435\u0440\u0435": 9174,
  "\u2581Kalou": 9175,
  "\u2581onto": 9176,
  "\u2581wilderness": 9177,
  "\u0412": 9178,
  "\u3066": 9179,
  "\u0ec8\u0eb2": 9180,
  "\u2581recognize": 9181,
  "\u03ac\u03bd": 9182,
  "\u2581multitude": 9183,
  "\u2581August": 9184,
  "\u5929": 9185,
  "\u2581host": 9186,
  "\u2581Nzambe": 9187,
  "\u2581Game": 9188,
  "\u2581observed": 9189,
  "\u2581\u0433\u0443": 9190,
  "66": 9191,
  "\u2581\u068f\u064a": 9192,
  "\u2581belongs": 9193,
  "\u043b\u0442": 9194,
  "yong": 9195,
  "amente": 9196,
  "aro": 9197,
  "\u2581Kita": 9198,
  "\u00e8n": 9199,
  "\u0645\u0628\u0647": 9200,
  "\u5148\u751f": 9201,
  "\u2581\u0410\u043b\u043b\u0430": 9202,
  "\u2581bari": 9203,
  "\u2581glad": 9204,
  "\u2581tho": 9205,
  "\u2581\u101e\u1031\u102c": 9206,
  "\u2581Gre": 9207,
  "\u2581Tri": 9208,
  "lec": 9209,
  "\u0627\u0633": 9210,
  "cum": 9211,
  "\u5f53": 9212,
  "\u2581software": 9213,
  "\u2581\u0924\u0930": 9214,
  "\u2581hide": 9215,
  "\u12a0": 9216,
  "\u2581fram": 9217,
  "\u2581matu": 9218,
  "\u064a\u062a": 9219,
  "\u2581Y\u00e9sus": 9220,
  "\u2581\u0627\u0644\u062a\u064a": 9221,
  "\u2581\u06be\u06d5\u0642\u0649\u0642\u06d5\u062a\u06d5\u0646": 9222,
  "\u2581ibukin": 9223,
  "\u2581Should": 9224,
  "\u0458\u0435": 9225,
  "\u2581miles": 9226,
  "nych": 9227,
  "\u2581\u0a32\u0a08": 9228,
  "f\u00f6r": 9229,
  "\u258123:": 9230,
  "\u0131n\u0131": 9231,
  "\u2581\u043a\u04e9": 9232,
  "\u2581Free": 9233,
  "\u2581gal": 9234,
  "\u2581\u0924\u0947": 9235,
  "\u043a\u04d7": 9236,
  "iraa": 9237,
  "r\u00e1n": 9238,
  "\u2581\u062a\u0639": 9239,
  "\u2581National": 9240,
  "v\u0101": 9241,
  "\u2581goods": 9242,
  "idade": 9243,
  "LI": 9244,
  "\u2581n\u00e3o": 9245,
  "\u2581Mari": 9246,
  "\u2581muli": 9247,
  "\u0b1f": 9248,
  "nal": 9249,
  "rios": 9250,
  "\u2581across": 9251,
  "\u0449\u0430": 9252,
  "\u2581Gal": 9253,
  "\u2581d\u00f6": 9254,
  "\u2581gla": 9255,
  "\u2581\u0918": 9256,
  "\u0e44": 9257,
  "\u2581\u043d\u0430\u0441\u0433\u044c\u044b": 9258,
  "\u2581pasi": 9259,
  "\u2581ning": 9260,
  "\u0ba4\u0bcd\u0ba4\u0bc1": 9261,
  "\u95ee\u9898": 9262,
  "mint": 9263,
  "\u0f61\u0f72\u0f42\u0f0b\u0f46\u0f0b": 9264,
  "Ku": 9265,
  "\u5916": 9266,
  "\u2581produced": 9267,
  "mate": 9268,
  "\u2581\u0995\u09b0\u09c7": 9269,
  "\u2581remained": 9270,
  "\u2581sacred": 9271,
  "\u2581vos": 9272,
  "\u0bbf\u0bb2\u0bcd": 9273,
  "\u06cc\u0631": 9274,
  "\u2581\u0446\u044b": 9275,
  "\u2581anali": 9276,
  "\u2581Cur": 9277,
  "\u2581\u0dc4": 9278,
  "\u2581hiya": 9279,
  "tom": 9280,
  "\u2581observe": 9281,
  "\u2581projects": 9282,
  "\u2581\u12aa": 9283,
  "\u2581nuo": 9284,
  "our": 9285,
  "ngwa": 9286,
  "\u2581visited": 9287,
  "\u2581niet": 9288,
  "\u2581description": 9289,
  "\u2581install": 9290,
  "nong": 9291,
  "\u2581\u0567\u0580": 9292,
  "OP": 9293,
  "\u0d24\u0d41": 9294,
  "c\u0259": 9295,
  "\u2581paradise": 9296,
  "\u0632\u0647": 9297,
  "\u0300": 9298,
  "\u2581\u0932": 9299,
  "\u0a9c": 9300,
  "\u043b\u04d9\u043d": 9301,
  "\u2581Simon": 9302,
  "\u2581meant": 9303,
  "\u2581\u015fi": 9304,
  "\u2581\u044d\u043b\u0435": 9305,
  "\u044b\u043c\u0430\u0448": 9306,
  "\u2581buy": 9307,
  "zioni": 9308,
  "\u0ab3": 9309,
  "oba": 9310,
  "\u2581guys": 9311,
  "\u2581isn": 9312,
  "\u2581\u043a\u04af": 9313,
  "\u2581\u0a06": 9314,
  "\u043e\u0448": 9315,
  "\u0cbe\u0c97\u0cbf": 9316,
  "\u05d1\u05e8": 9317,
  "\u2581nam": 9318,
  "\u2581strive": 9319,
  "\u2581despite": 9320,
  "\u0a30\u0a40": 9321,
  "i\u00f1": 9322,
  "\u00e4\u00e4n": 9323,
  "\u2581fel": 9324,
  "\u2581deeply": 9325,
  "ill": 9326,
  "\u2581manatu": 9327,
  "\u2581TV": 9328,
  "\u0916\u093e": 9329,
  "\u2581French": 9330,
  "\u0627\u0646\u0647": 9331,
[...]
